unsigned char pwm_model_tflite[] = {
  0x1c, 0x00, 0x00, 0x00, 0x54, 0x46, 0x4c, 0x33, 0x14, 0x00, 0x20, 0x00,
  0x1c, 0x00, 0x18, 0x00, 0x14, 0x00, 0x10, 0x00, 0x0c, 0x00, 0x00, 0x00,
  0x08, 0x00, 0x04, 0x00, 0x14, 0x00, 0x00, 0x00, 0x1c, 0x00, 0x00, 0x00,
  0x8c, 0x00, 0x00, 0x00, 0xe4, 0x00, 0x00, 0x00, 0xbc, 0x11, 0x00, 0x00,
  0xcc, 0x11, 0x00, 0x00, 0xec, 0x19, 0x00, 0x00, 0x03, 0x00, 0x00, 0x00,
  0x01, 0x00, 0x00, 0x00, 0x04, 0x00, 0x00, 0x00, 0x7a, 0xed, 0xff, 0xff,
  0x0c, 0x00, 0x00, 0x00, 0x1c, 0x00, 0x00, 0x00, 0x3c, 0x00, 0x00, 0x00,
  0x0f, 0x00, 0x00, 0x00, 0x73, 0x65, 0x72, 0x76, 0x69, 0x6e, 0x67, 0x5f,
  0x64, 0x65, 0x66, 0x61, 0x75, 0x6c, 0x74, 0x00, 0x01, 0x00, 0x00, 0x00,
  0x04, 0x00, 0x00, 0x00, 0x90, 0xff, 0xff, 0xff, 0x0d, 0x00, 0x00, 0x00,
  0x04, 0x00, 0x00, 0x00, 0x08, 0x00, 0x00, 0x00, 0x64, 0x65, 0x6e, 0x73,
  0x65, 0x5f, 0x32, 0x31, 0x00, 0x00, 0x00, 0x00, 0x01, 0x00, 0x00, 0x00,
  0x04, 0x00, 0x00, 0x00, 0xc6, 0xef, 0xff, 0xff, 0x04, 0x00, 0x00, 0x00,
  0x0f, 0x00, 0x00, 0x00, 0x63, 0x6f, 0x6e, 0x76, 0x31, 0x64, 0x5f, 0x31,
  0x30, 0x5f, 0x69, 0x6e, 0x70, 0x75, 0x74, 0x00, 0x02, 0x00, 0x00, 0x00,
  0x34, 0x00, 0x00, 0x00, 0x04, 0x00, 0x00, 0x00, 0xdc, 0xff, 0xff, 0xff,
  0x10, 0x00, 0x00, 0x00, 0x04, 0x00, 0x00, 0x00, 0x13, 0x00, 0x00, 0x00,
  0x43, 0x4f, 0x4e, 0x56, 0x45, 0x52, 0x53, 0x49, 0x4f, 0x4e, 0x5f, 0x4d,
  0x45, 0x54, 0x41, 0x44, 0x41, 0x54, 0x41, 0x00, 0x08, 0x00, 0x0c, 0x00,
  0x08, 0x00, 0x04, 0x00, 0x08, 0x00, 0x00, 0x00, 0x0f, 0x00, 0x00, 0x00,
  0x04, 0x00, 0x00, 0x00, 0x13, 0x00, 0x00, 0x00, 0x6d, 0x69, 0x6e, 0x5f,
  0x72, 0x75, 0x6e, 0x74, 0x69, 0x6d, 0x65, 0x5f, 0x76, 0x65, 0x72, 0x73,
  0x69, 0x6f, 0x6e, 0x00, 0x11, 0x00, 0x00, 0x00, 0xd4, 0x10, 0x00, 0x00,
  0xcc, 0x10, 0x00, 0x00, 0xbc, 0x0f, 0x00, 0x00, 0x24, 0x0f, 0x00, 0x00,
  0x14, 0x0a, 0x00, 0x00, 0x00, 0x0a, 0x00, 0x00, 0xf0, 0x08, 0x00, 0x00,
  0xd8, 0x08, 0x00, 0x00, 0xc4, 0x08, 0x00, 0x00, 0xb4, 0x00, 0x00, 0x00,
  0xac, 0x00, 0x00, 0x00, 0xa4, 0x00, 0x00, 0x00, 0x9c, 0x00, 0x00, 0x00,
  0x94, 0x00, 0x00, 0x00, 0x8c, 0x00, 0x00, 0x00, 0x6c, 0x00, 0x00, 0x00,
  0x04, 0x00, 0x00, 0x00, 0x86, 0xf0, 0xff, 0xff, 0x04, 0x00, 0x00, 0x00,
  0x58, 0x00, 0x00, 0x00, 0x0c, 0x00, 0x00, 0x00, 0x08, 0x00, 0x0e, 0x00,
  0x08, 0x00, 0x04, 0x00, 0x08, 0x00, 0x00, 0x00, 0x10, 0x00, 0x00, 0x00,
  0x28, 0x00, 0x00, 0x00, 0x00, 0x00, 0x06, 0x00, 0x08, 0x00, 0x04, 0x00,
  0x06, 0x00, 0x00, 0x00, 0x04, 0x00, 0x00, 0x00, 0x01, 0x00, 0x00, 0x00,
  0xea, 0x03, 0x00, 0x00, 0x00, 0x00, 0x0a, 0x00, 0x10, 0x00, 0x0c, 0x00,
  0x08, 0x00, 0x04, 0x00, 0x0a, 0x00, 0x00, 0x00, 0x01, 0x00, 0x00, 0x00,
  0x02, 0x00, 0x00, 0x00, 0x04, 0x00, 0x00, 0x00, 0x06, 0x00, 0x00, 0x00,
  0x32, 0x2e, 0x31, 0x35, 0x2e, 0x30, 0x00, 0x00, 0xea, 0xf0, 0xff, 0xff,
  0x04, 0x00, 0x00, 0x00, 0x10, 0x00, 0x00, 0x00, 0x32, 0x2e, 0x33, 0x2e,
  0x30, 0x00, 0x00, 0x00, 0x00, 0x00, 0x00, 0x00, 0x00, 0x00, 0x00, 0x00,
  0xf4, 0xe7, 0xff, 0xff, 0xf8, 0xe7, 0xff, 0xff, 0xfc, 0xe7, 0xff, 0xff,
  0x00, 0xe8, 0xff, 0xff, 0x04, 0xe8, 0xff, 0xff, 0x1a, 0xf1, 0xff, 0xff,
  0x04, 0x00, 0x00, 0x00, 0x00, 0x08, 0x00, 0x00, 0xe1, 0x09, 0xf1, 0xf3,
  0xf4, 0xfd, 0xee, 0x0f, 0xf0, 0x01, 0x03, 0x13, 0xe6, 0x01, 0x03, 0xf9,
  0x0b, 0x07, 0x07, 0xe6, 0xe9, 0xf7, 0xf5, 0xf3, 0xfc, 0xf2, 0x09, 0xf4,
  0x06, 0x10, 0x0a, 0x10, 0xfd, 0xf9, 0xed, 0xee, 0x0c, 0xf5, 0x0d, 0xfc,
  0x0b, 0x10, 0xf2, 0x04, 0xe9, 0x12, 0xf6, 0xe7, 0x00, 0xee, 0x07, 0xf2,
  0xf2, 0xe3, 0x06, 0x0b, 0xe7, 0xe9, 0x04, 0xf9, 0x04, 0x0b, 0x00, 0x01,
  0xfb, 0x12, 0xec, 0xc5, 0xfe, 0x15, 0x07, 0x12, 0xfd, 0x03, 0xc5, 0x01,
  0x03, 0x0c, 0xff, 0x0f, 0xf4, 0x01, 0x04, 0xff, 0x13, 0xeb, 0xef, 0x0b,
  0x09, 0xf5, 0xda, 0xd7, 0xf6, 0xcf, 0x00, 0x0f, 0xeb, 0x15, 0xf2, 0x0d,
  0xf1, 0xfc, 0xea, 0xf7, 0x10, 0xe9, 0xe6, 0x02, 0xf4, 0x0c, 0x00, 0xea,
  0xe5, 0x06, 0x0f, 0x0b, 0x18, 0xf3, 0x15, 0xec, 0xe8, 0xf1, 0x09, 0xf1,
  0xfb, 0xf5, 0x0f, 0xfa, 0xf7, 0x04, 0xf5, 0x0f, 0xf3, 0x12, 0x02, 0xf3,
  0x94, 0xf4, 0x0a, 0xfa, 0x08, 0x0e, 0xe1, 0xf1, 0x03, 0xe1, 0xfd, 0x0d,
  0x05, 0x04, 0x10, 0xfd, 0x04, 0x10, 0xe3, 0xfe, 0xe3, 0xf4, 0xf1, 0x0f,
  0xf5, 0xf7, 0xee, 0xf4, 0xea, 0xef, 0x0c, 0x10, 0x07, 0xf9, 0xf6, 0x09,
  0x05, 0x12, 0x0b, 0xe6, 0x0c, 0xf7, 0xed, 0xf9, 0x12, 0xfd, 0xf3, 0xff,
  0xf2, 0xfd, 0x01, 0xfc, 0x07, 0xf5, 0x06, 0x13, 0xeb, 0xfb, 0x0e, 0xf7,
  0x0c, 0x0d, 0xf8, 0xed, 0xeb, 0xfe, 0xf7, 0xfb, 0xe7, 0x0f, 0x02, 0xfe,
  0xf5, 0x11, 0xed, 0xf9, 0x0f, 0x07, 0x07, 0xec, 0xee, 0xe9, 0xec, 0x09,
  0x06, 0x00, 0xff, 0xed, 0x06, 0x0f, 0xfa, 0xef, 0xf1, 0x11, 0xfe, 0xee,
  0x8f, 0x11, 0x08, 0x04, 0x0b, 0x12, 0xf7, 0xf6, 0xf8, 0xc1, 0xf6, 0x08,
  0x02, 0xf0, 0x0a, 0xfe, 0x0f, 0xf9, 0xfd, 0x10, 0xe1, 0xdb, 0xf0, 0xee,
  0x13, 0x0e, 0x06, 0x00, 0xf6, 0xf1, 0x0a, 0xf2, 0xfe, 0x15, 0xc6, 0x05,
  0xe8, 0xf4, 0x15, 0xef, 0xe8, 0x0b, 0xf8, 0x0e, 0x11, 0xea, 0x0b, 0x01,
  0xf5, 0x08, 0xef, 0xd7, 0x1a, 0xdc, 0xf2, 0xf1, 0xe7, 0xf8, 0x0e, 0x09,
  0xec, 0xea, 0xf1, 0x03, 0xfa, 0x0c, 0x01, 0x00, 0x05, 0xf9, 0x06, 0xfa,
  0x03, 0x04, 0x06, 0x01, 0xf8, 0xe6, 0xf9, 0xef, 0xec, 0xe6, 0x0a, 0xeb,
  0xf8, 0x08, 0x16, 0x12, 0x09, 0xfa, 0x02, 0x15, 0x08, 0xef, 0xf9, 0x0a,
  0xf6, 0xdf, 0xf5, 0xfe, 0x09, 0xfb, 0x06, 0xfa, 0x04, 0xf0, 0x12, 0xfe,
  0xf2, 0x0c, 0x0b, 0xee, 0x10, 0x02, 0xf2, 0x16, 0xed, 0xf7, 0xf9, 0x13,
  0xe5, 0x09, 0x0d, 0x05, 0x12, 0xff, 0xea, 0x0a, 0x01, 0x02, 0xfc, 0x00,
  0xf2, 0x07, 0xf2, 0xf5, 0xf2, 0xee, 0xe8, 0xfb, 0x06, 0x0b, 0x04, 0xfa,
  0x0b, 0xf4, 0x02, 0xec, 0xfe, 0x06, 0x00, 0x01, 0xfc, 0xf6, 0xfb, 0xe9,
  0x0f, 0x0d, 0xe9, 0xf4, 0xf8, 0x0a, 0x0b, 0x0d, 0xfc, 0xef, 0xf3, 0xee,
  0xf1, 0x09, 0x06, 0xe7, 0xfc, 0xec, 0xfd, 0x02, 0xe6, 0x01, 0xf3, 0xfa,
  0xf4, 0x10, 0x00, 0x11, 0x06, 0xe9, 0x02, 0x15, 0xe9, 0xec, 0xef, 0xe5,
  0x16, 0x01, 0xf0, 0x04, 0xf3, 0x0f, 0xf9, 0xfe, 0x11, 0xf0, 0x00, 0xea,
  0x02, 0x07, 0xfa, 0xff, 0xf3, 0x0a, 0x08, 0x00, 0xfc, 0xfc, 0x04, 0xe7,
  0xfd, 0x02, 0xec, 0xc9, 0x00, 0x03, 0xfb, 0x12, 0x16, 0xf9, 0xea, 0x15,
  0xf2, 0xf5, 0xe8, 0xf3, 0x0f, 0x1a, 0xf2, 0xff, 0xf0, 0x07, 0xf2, 0xfd,
  0x0d, 0x06, 0xdc, 0xc4, 0x00, 0xdc, 0xf8, 0x0f, 0x06, 0x0c, 0x07, 0xd6,
  0xfd, 0x11, 0x00, 0xfa, 0x10, 0xf2, 0x0d, 0x01, 0xf2, 0xfe, 0xf3, 0xf0,
  0xf1, 0xff, 0x01, 0xfa, 0xe7, 0xe7, 0xf7, 0x09, 0xfe, 0xe1, 0xe5, 0xd0,
  0x0f, 0x16, 0x0b, 0xf3, 0xf9, 0x00, 0xe8, 0xe7, 0x08, 0x14, 0x0b, 0x02,
  0x01, 0xed, 0xf6, 0xf2, 0x05, 0xef, 0xff, 0xfe, 0x15, 0xff, 0xf0, 0xf5,
  0x0a, 0x09, 0xe0, 0xff, 0x0d, 0xf5, 0xfa, 0xd6, 0x09, 0xfd, 0x06, 0x1d,
  0x05, 0xfa, 0xe7, 0xfd, 0x10, 0xf8, 0x07, 0xef, 0xe8, 0xf0, 0xdc, 0xff,
  0xf5, 0xfa, 0x0d, 0xf7, 0x03, 0x0f, 0x09, 0xf9, 0xf3, 0xf6, 0x13, 0xfc,
  0xf0, 0x06, 0x00, 0xfc, 0xf8, 0x03, 0xf5, 0xf2, 0x0e, 0xfe, 0xfa, 0xf9,
  0x09, 0x12, 0x09, 0xf4, 0x03, 0x0b, 0xfe, 0x05, 0xef, 0x00, 0xef, 0x10,
  0xeb, 0x00, 0x01, 0x0a, 0xfb, 0x1f, 0xf5, 0xef, 0x0b, 0xed, 0xff, 0xf8,
  0x15, 0xf7, 0x0b, 0xff, 0x00, 0xf3, 0xf1, 0x0c, 0x0f, 0x0b, 0x00, 0x03,
  0xf5, 0x0a, 0xf0, 0xee, 0xf5, 0xfd, 0xf7, 0xeb, 0x03, 0xf4, 0x0a, 0xfc,
  0xfb, 0xfb, 0x06, 0x04, 0x06, 0xe1, 0x13, 0x1e, 0x0b, 0xfd, 0x15, 0xf6,
  0x13, 0x1a, 0x0b, 0xaa, 0x03, 0x09, 0x0d, 0x04, 0x16, 0x0a, 0xb4, 0xf1,
  0xfd, 0xf8, 0xf3, 0x00, 0xfd, 0xfb, 0xf2, 0x15, 0x0a, 0x12, 0xe0, 0x0b,
  0xed, 0xf0, 0xd9, 0xcf, 0xea, 0xf3, 0x14, 0x00, 0xed, 0xf6, 0x09, 0xf6,
  0x02, 0xf2, 0xfb, 0xf4, 0xec, 0x11, 0xfa, 0xfd, 0x0c, 0xec, 0xe6, 0xe6,
  0x07, 0x0b, 0xf4, 0x00, 0x00, 0x0c, 0xe9, 0xfc, 0xe9, 0xfb, 0x05, 0xe7,
  0x06, 0x12, 0x07, 0xed, 0xf4, 0xfb, 0xfa, 0xf8, 0x0f, 0x0a, 0x01, 0x00,
  0xe2, 0x12, 0xfc, 0xf4, 0xe8, 0x06, 0xff, 0xfb, 0xea, 0xef, 0x16, 0x0f,
  0x0c, 0xfd, 0x01, 0x0e, 0x05, 0x05, 0x05, 0xfc, 0x08, 0x05, 0x09, 0x05,
  0xfa, 0x16, 0x04, 0xfb, 0x0c, 0xef, 0xe8, 0xf9, 0x13, 0xfb, 0xe6, 0x03,
  0xe9, 0x0c, 0x07, 0x14, 0x0f, 0x06, 0x01, 0x04, 0x13, 0xf5, 0xfa, 0x05,
  0xf4, 0x0f, 0xfd, 0xfa, 0x02, 0xe6, 0x00, 0xed, 0xe4, 0x12, 0x0d, 0x0d,
  0x0b, 0xe5, 0xed, 0xe6, 0x17, 0x16, 0xe8, 0xfe, 0xe7, 0xf8, 0x0c, 0xfd,
  0x05, 0xf9, 0xff, 0x19, 0x05, 0x0b, 0xb2, 0xfa, 0x17, 0xfb, 0xf5, 0x9e,
  0xfc, 0xf6, 0xfb, 0xed, 0x01, 0x0f, 0xe6, 0xe5, 0x16, 0x03, 0x09, 0x03,
  0xf7, 0x11, 0xed, 0xe3, 0xfd, 0x0f, 0xea, 0x0a, 0x07, 0x11, 0xeb, 0xfb,
  0xfb, 0x02, 0xfc, 0xf3, 0xf7, 0x10, 0xfd, 0xcf, 0xef, 0xde, 0x15, 0xff,
  0xdf, 0xf4, 0x12, 0x03, 0xf1, 0x0c, 0xf9, 0x0d, 0xea, 0x12, 0x05, 0xef,
  0x0c, 0xf6, 0x02, 0x11, 0xeb, 0xec, 0xf4, 0x0c, 0xfe, 0xf6, 0x03, 0xef,
  0x09, 0xdf, 0xec, 0xeb, 0x17, 0xf0, 0xf3, 0x06, 0x07, 0x05, 0xf0, 0x08,
  0xef, 0x07, 0xe5, 0x02, 0xef, 0xed, 0xec, 0xfc, 0xf8, 0xf4, 0xfd, 0xf3,
  0x0a, 0x0c, 0xfc, 0x11, 0xf5, 0x04, 0x0c, 0x0b, 0xf0, 0xf0, 0x08, 0x11,
  0xf0, 0x0a, 0x04, 0xe8, 0xfb, 0xed, 0x07, 0x07, 0xf0, 0xf5, 0xe6, 0x0b,
  0xf0, 0xfc, 0xff, 0x0c, 0xf4, 0xf0, 0xfd, 0x02, 0x15, 0x06, 0xf6, 0xf0,
  0xfd, 0x08, 0xf8, 0x15, 0x11, 0x02, 0x0f, 0xe7, 0xfe, 0xf2, 0x00, 0xf5,
  0x0c, 0x18, 0xf9, 0xfc, 0x08, 0x08, 0xf7, 0xee, 0x0b, 0xe9, 0x00, 0x01,
  0x0c, 0x00, 0xfd, 0x12, 0xf1, 0xf5, 0xfa, 0xff, 0x09, 0x0b, 0xec, 0xf3,
  0x01, 0xfb, 0x0e, 0xfd, 0xed, 0x0b, 0x0f, 0xfb, 0x00, 0xdd, 0xe8, 0xf4,
  0x15, 0xf7, 0xa6, 0x11, 0x05, 0xcf, 0x0a, 0xed, 0x03, 0xf3, 0x0c, 0xf6,
  0xf7, 0xd6, 0xeb, 0xfb, 0xf2, 0x03, 0x0d, 0xe7, 0xfd, 0xea, 0x0a, 0x20,
  0x09, 0x06, 0xf5, 0xfe, 0xec, 0xfd, 0xfa, 0x11, 0xeb, 0xe4, 0xf7, 0x09,
  0xec, 0xff, 0x09, 0xe7, 0x00, 0x0a, 0xed, 0xf4, 0x10, 0xe9, 0x12, 0x03,
  0x01, 0x07, 0xfc, 0xef, 0x02, 0xf8, 0xfe, 0xff, 0x01, 0xfb, 0xe6, 0xf0,
  0xe8, 0xfc, 0x05, 0xfc, 0x01, 0xee, 0xfd, 0xf5, 0x08, 0xe9, 0xe4, 0xff,
  0xe9, 0x07, 0x0a, 0xf0, 0x07, 0x0e, 0xfa, 0xf6, 0x0b, 0xe7, 0x0a, 0xe9,
  0x08, 0xf2, 0xe5, 0xf6, 0x02, 0x0d, 0xf0, 0xf3, 0xf8, 0xf8, 0x02, 0x0a,
  0xfe, 0x17, 0x04, 0xfd, 0xe9, 0xff, 0xea, 0x0a, 0xe6, 0xf5, 0xf8, 0x0d,
  0x03, 0xe0, 0xee, 0x03, 0xee, 0x19, 0xfa, 0x09, 0xff, 0x02, 0x0c, 0xe2,
  0x08, 0xfe, 0x0f, 0x07, 0xfe, 0x09, 0xf7, 0xea, 0xef, 0x02, 0x11, 0x0c,
  0x03, 0xfd, 0xdf, 0x00, 0xe2, 0xe4, 0xf6, 0xf0, 0x15, 0xf4, 0xf3, 0xff,
  0x0e, 0x17, 0xd3, 0x13, 0x12, 0x03, 0xde, 0xe3, 0x01, 0xe0, 0xff, 0x03,
  0xf2, 0x0c, 0xef, 0x01, 0xf2, 0x02, 0xf9, 0xfa, 0xfa, 0x0e, 0x16, 0x07,
  0x0f, 0xed, 0xf9, 0xf4, 0xf6, 0x04, 0x08, 0xf3, 0x0c, 0xf3, 0xe8, 0x04,
  0x07, 0xff, 0xf1, 0xe7, 0xee, 0xed, 0x18, 0xf7, 0x06, 0x04, 0xef, 0xe2,
  0x0a, 0x02, 0xfd, 0xe9, 0x20, 0xfa, 0xeb, 0xf1, 0x14, 0xf8, 0x00, 0x09,
  0xf3, 0xf4, 0xf1, 0x10, 0x0b, 0xfa, 0xf0, 0x1f, 0xfa, 0x01, 0xde, 0xc3,
  0xf5, 0xe7, 0x17, 0x14, 0xe1, 0xe3, 0xff, 0x0a, 0x09, 0xfb, 0x0d, 0x01,
  0x05, 0x0e, 0x0c, 0x06, 0x0f, 0x06, 0x09, 0x06, 0x01, 0xe1, 0xe9, 0xf1,
  0xfd, 0xe7, 0x0b, 0xfe, 0xe8, 0x05, 0xea, 0xef, 0x06, 0x00, 0x0e, 0xe2,
  0x0c, 0x10, 0x03, 0x02, 0x17, 0xee, 0xea, 0xfb, 0x0d, 0xf0, 0x03, 0xec,
  0xf3, 0xed, 0x07, 0xec, 0xe6, 0x0b, 0x0b, 0x03, 0xf5, 0x15, 0x01, 0x08,
  0x0d, 0xe2, 0x01, 0xf6, 0x0a, 0xfa, 0xea, 0xfe, 0xf9, 0xfb, 0x02, 0x11,
  0xe7, 0x0c, 0xf6, 0x0b, 0xf9, 0xfa, 0xf0, 0xf1, 0x05, 0x03, 0x15, 0x0c,
  0x09, 0x0e, 0xe5, 0xfc, 0xf0, 0x10, 0xf7, 0x04, 0xf5, 0x09, 0xe9, 0xfe,
  0xf2, 0xff, 0x07, 0x1a, 0xda, 0x00, 0x0a, 0x10, 0xfc, 0xdc, 0xc1, 0xe4,
  0xe7, 0xee, 0x11, 0xfa, 0x03, 0xf6, 0xea, 0xf3, 0x06, 0x05, 0xce, 0xf2,
  0x03, 0xe3, 0x0d, 0xfd, 0x10, 0xfc, 0x02, 0x07, 0xf1, 0x0c, 0xe8, 0xf0,
  0xfe, 0xed, 0x0b, 0x02, 0x10, 0x06, 0xec, 0xf6, 0xec, 0x0e, 0xfe, 0x11,
  0xf9, 0x01, 0xf3, 0x0d, 0xf3, 0x05, 0xea, 0xe0, 0xf1, 0x02, 0x15, 0x0a,
  0x07, 0x03, 0xf3, 0xf3, 0xf5, 0x1b, 0xf4, 0xeb, 0xe8, 0xfb, 0xf1, 0xf2,
  0x15, 0xea, 0xfe, 0xf9, 0x0d, 0xeb, 0xec, 0x00, 0xf9, 0x0e, 0x0e, 0x07,
  0x0e, 0xf4, 0x00, 0x03, 0x07, 0x00, 0x04, 0xf2, 0xfe, 0xfd, 0xf4, 0x0f,
  0xf1, 0xf7, 0xed, 0xf8, 0x00, 0x0d, 0x06, 0x09, 0x0d, 0xf7, 0x12, 0x12,
  0x03, 0x09, 0x08, 0x01, 0xed, 0x0a, 0xfe, 0x0f, 0xfd, 0xf8, 0xf0, 0xf3,
  0xf7, 0x10, 0xf4, 0xe8, 0xed, 0xee, 0xff, 0xfa, 0xfc, 0xe3, 0x09, 0x09,
  0x02, 0x0f, 0x13, 0x05, 0x01, 0x18, 0x0b, 0x0f, 0xbf, 0x08, 0x15, 0x05,
  0xe6, 0x13, 0x04, 0xf5, 0xf2, 0xce, 0xea, 0x05, 0xf0, 0x0e, 0xfd, 0xe6,
  0xf4, 0xf7, 0x07, 0x03, 0xfc, 0xf4, 0x0a, 0xf4, 0x0c, 0xf7, 0x11, 0xdb,
  0xe4, 0x1d, 0x06, 0x18, 0xfe, 0xed, 0x22, 0x02, 0xc6, 0x05, 0xf0, 0x0c,
  0xf6, 0xdd, 0xec, 0xf9, 0x13, 0x0d, 0xf8, 0x16, 0x0f, 0xf6, 0x0b, 0xf3,
  0x0f, 0x25, 0xf7, 0xe8, 0xf5, 0x00, 0x04, 0xfe, 0xed, 0xfb, 0xf6, 0x0e,
  0x0c, 0x0c, 0xe4, 0x06, 0xfd, 0xf8, 0xf3, 0xfb, 0xf7, 0x02, 0xfe, 0xfb,
  0x14, 0x05, 0xf3, 0xee, 0xe9, 0xf5, 0xf4, 0x0e, 0xf0, 0xea, 0x11, 0xf8,
  0xfb, 0x0a, 0x03, 0xa3, 0x0f, 0xfc, 0x02, 0xe5, 0xe7, 0xf3, 0x08, 0x09,
  0xfb, 0x04, 0xf4, 0xfc, 0x01, 0x0d, 0xe5, 0xf0, 0xfc, 0xf9, 0x13, 0xed,
  0xed, 0xf5, 0x06, 0xe8, 0x10, 0xf6, 0x02, 0xe7, 0x14, 0xfe, 0xfa, 0xd0,
  0xef, 0x00, 0x11, 0xf0, 0x16, 0xf2, 0xc2, 0xf3, 0xfe, 0x08, 0xf6, 0xf7,
  0xec, 0xf2, 0x0e, 0x0d, 0xf9, 0x02, 0xd8, 0xf4, 0x10, 0xf9, 0xe6, 0xe2,
  0x0a, 0xe5, 0x15, 0x23, 0xf3, 0x03, 0x0e, 0x10, 0x08, 0x08, 0x01, 0xf7,
  0xfc, 0x1a, 0xf3, 0x10, 0xf6, 0x0b, 0xfe, 0xe8, 0x05, 0xef, 0xfd, 0xeb,
  0xee, 0x23, 0xfe, 0x08, 0x0f, 0xf4, 0x0a, 0xf6, 0xef, 0x0f, 0x12, 0x14,
  0xee, 0xf4, 0xf7, 0xe1, 0xf2, 0xf8, 0x02, 0x03, 0xf9, 0xf4, 0x12, 0x0c,
  0x05, 0x15, 0xf8, 0xfc, 0xef, 0xfb, 0xeb, 0x09, 0xfc, 0x09, 0x10, 0xee,
  0xec, 0xe4, 0xfa, 0x10, 0xf1, 0xfa, 0xf3, 0x0c, 0x0f, 0xf0, 0xf5, 0xec,
  0xf9, 0xfc, 0xf5, 0x00, 0xd0, 0x00, 0x05, 0x0a, 0x0c, 0xf7, 0xeb, 0x00,
  0xfe, 0xf7, 0x05, 0x11, 0xd9, 0x0a, 0x01, 0xfe, 0x04, 0xfd, 0xea, 0x0e,
  0xf1, 0x1c, 0xf9, 0x05, 0x11, 0xfe, 0x14, 0xc8, 0xee, 0x00, 0x02, 0x02,
  0xf5, 0x15, 0x17, 0xe4, 0xf3, 0xf3, 0x10, 0x10, 0x01, 0x12, 0xf9, 0xf0,
  0xfb, 0xe5, 0xe2, 0xe9, 0xf1, 0x12, 0xdf, 0xd0, 0x0d, 0xe6, 0x03, 0x07,
  0x10, 0x0f, 0x11, 0xd2, 0xfe, 0xee, 0x06, 0x07, 0x04, 0x05, 0xf7, 0xdf,
  0xed, 0xeb, 0xf8, 0xec, 0x13, 0x05, 0xf2, 0xf2, 0x05, 0xeb, 0xca, 0xf1,
  0xf5, 0xeb, 0xcc, 0xe0, 0x02, 0xd5, 0x0d, 0x32, 0xf0, 0x19, 0xf2, 0x07,
  0x03, 0xf3, 0xfa, 0xdf, 0x0b, 0xf6, 0xeb, 0xff, 0xf4, 0xf2, 0x0d, 0xed,
  0x03, 0x05, 0x0f, 0x00, 0x16, 0xf6, 0x0c, 0x12, 0x0b, 0x0e, 0x02, 0xf1,
  0xff, 0x02, 0x02, 0x00, 0xff, 0x03, 0xf2, 0x0d, 0xe5, 0x0b, 0x09, 0xf2,
  0xfe, 0x04, 0xe5, 0xf6, 0x0a, 0x14, 0x11, 0x04, 0xf6, 0xf4, 0xff, 0xff,
  0xfe, 0x0e, 0xe9, 0xfd, 0xfa, 0xee, 0x04, 0x11, 0xfe, 0xec, 0xe3, 0x00,
  0xdf, 0x0e, 0xf5, 0x0e, 0xf6, 0xfd, 0x01, 0xff, 0x07, 0x0a, 0xfc, 0x01,
  0xf3, 0x01, 0xf6, 0x07, 0x07, 0xe3, 0xfb, 0xe9, 0xf0, 0x01, 0x10, 0x0b,
  0x08, 0xf3, 0x03, 0xf5, 0xf6, 0x01, 0xfb, 0x08, 0x05, 0xfa, 0xeb, 0xe1,
  0xfa, 0x0f, 0xfb, 0x0c, 0xf5, 0x0b, 0xce, 0x0a, 0x02, 0xfe, 0xf4, 0xfb,
  0xf2, 0x0f, 0x09, 0x02, 0xf4, 0x0f, 0xf1, 0x0a, 0x11, 0x03, 0xfb, 0xc8,
  0xec, 0xb3, 0x0f, 0xfb, 0x0d, 0xff, 0x0b, 0xf0, 0x0b, 0x0a, 0x03, 0xf8,
  0xec, 0xfb, 0x05, 0xf2, 0xf2, 0xeb, 0x04, 0x07, 0xf3, 0x0d, 0x09, 0xed,
  0x0a, 0x0f, 0xd9, 0x0d, 0x0e, 0x10, 0x07, 0xd8, 0xec, 0x03, 0xed, 0x0d,
  0xfe, 0x13, 0x03, 0xed, 0x0f, 0x09, 0xec, 0x08, 0xed, 0x11, 0xfb, 0xff,
  0xfe, 0xf0, 0x02, 0x16, 0xf4, 0xff, 0x08, 0xf6, 0x0d, 0x0f, 0xe8, 0xf2,
  0x08, 0xf6, 0xe0, 0x09, 0xf9, 0xea, 0x12, 0xf7, 0xfe, 0xf3, 0xf5, 0xf6,
  0xf7, 0x00, 0x0c, 0x10, 0x12, 0xec, 0xe7, 0xf0, 0x11, 0x12, 0xe8, 0xfc,
  0x00, 0xef, 0xf0, 0x12, 0xed, 0x13, 0xf4, 0x0d, 0x00, 0x04, 0x08, 0x0e,
  0x16, 0xee, 0xf8, 0x13, 0x05, 0x1b, 0xec, 0x81, 0xf0, 0x15, 0xf8, 0xf3,
  0x12, 0xf2, 0xa4, 0x0e, 0xf2, 0xec, 0xec, 0x0f, 0xff, 0xfd, 0xee, 0x11,
  0xe6, 0xfc, 0xf4, 0xfc, 0xfd, 0xfd, 0x07, 0xd3, 0x15, 0xf5, 0xfd, 0xf0,
  0x09, 0x0d, 0xec, 0xf3, 0xfc, 0xf4, 0xf3, 0x05, 0xe6, 0x00, 0xf6, 0xe8,
  0xfe, 0x09, 0x00, 0x0e, 0x0e, 0xfd, 0xf7, 0x0a, 0x0d, 0x11, 0xff, 0x0a,
  0x04, 0x05, 0xf9, 0xe1, 0xee, 0xf3, 0x11, 0xee, 0x0b, 0xef, 0xed, 0x03,
  0xff, 0x06, 0xfc, 0x00, 0xd6, 0xe4, 0xff, 0x0c, 0xf0, 0x01, 0xf8, 0x11,
  0x01, 0xea, 0x02, 0xf8, 0x06, 0x0c, 0xf8, 0x17, 0xfa, 0x0f, 0x00, 0x0e,
  0x0d, 0xfa, 0xe6, 0xf2, 0x26, 0xf9, 0xff, 0xff, 0x04, 0x00, 0x00, 0x00,
  0x04, 0x00, 0x00, 0x00, 0xfd, 0xff, 0xff, 0xff, 0x36, 0xf9, 0xff, 0xff,
  0x04, 0x00, 0x00, 0x00, 0x08, 0x00, 0x00, 0x00, 0xff, 0xff, 0xff, 0xff,
  0x20, 0x00, 0x00, 0x00, 0x4a, 0xf9, 0xff, 0xff, 0x04, 0x00, 0x00, 0x00,
  0x00, 0x01, 0x00, 0x00, 0x60, 0x3e, 0x98, 0xbd, 0x4a, 0xd8, 0x49, 0xbe,
  0xa4, 0xf6, 0x67, 0x3e, 0x4d, 0x6c, 0x2c, 0x3c, 0xe2, 0xf6, 0xae, 0x3c,
  0xf9, 0xab, 0xd1, 0xbe, 0x1e, 0x02, 0x02, 0xbd, 0xd2, 0x17, 0x04, 0x3d,
  0xf8, 0x5b, 0x1e, 0x3e, 0xee, 0x08, 0xb1, 0xbe, 0x1f, 0xae, 0x5a, 0x3d,
  0xb0, 0xac, 0xbc, 0xbd, 0xe1, 0xa6, 0x8a, 0xbd, 0x28, 0x25, 0x7d, 0xbd,
  0x51, 0x33, 0x8e, 0x3e, 0xba, 0xeb, 0x3c, 0x3d, 0x56, 0xa5, 0x59, 0x3e,
  0xe5, 0x60, 0xc8, 0x3a, 0x2d, 0xab, 0xc5, 0xbe, 0x53, 0x24, 0xd6, 0xbc,
  0x86, 0xe2, 0x28, 0x3e, 0x01, 0x2b, 0x32, 0xbe, 0x6c, 0x0a, 0x18, 0xbd,
  0xc2, 0x68, 0x6b, 0xbe, 0xfb, 0x3c, 0x91, 0x3e, 0x89, 0xda, 0x28, 0x3e,
  0x3f, 0xb7, 0x0f, 0xbe, 0x5e, 0xa3, 0x88, 0x3d, 0x22, 0xb0, 0x05, 0xbe,
  0x53, 0x1c, 0x36, 0xbe, 0xc3, 0x3c, 0x41, 0xbe, 0x8f, 0xf2, 0xa8, 0xbd,
  0x5f, 0x4c, 0xc1, 0xbd, 0x9d, 0x5b, 0x4a, 0xbe, 0xb9, 0xff, 0x6f, 0x3e,
  0x13, 0x87, 0x84, 0x3c, 0x68, 0x4a, 0x05, 0x3e, 0x0d, 0x04, 0x59, 0xbd,
  0xf1, 0x36, 0xdb, 0xbd, 0xf3, 0x9c, 0x3d, 0x3d, 0x6d, 0x83, 0x76, 0xbc,
  0x81, 0x85, 0xf6, 0xbd, 0x47, 0x57, 0xdc, 0xbd, 0x45, 0xd0, 0x82, 0xbe,
  0x28, 0xeb, 0x2a, 0x3d, 0xa4, 0xc9, 0x5f, 0xbd, 0x32, 0x21, 0xc1, 0xbe,
  0xf5, 0xdf, 0x04, 0xbe, 0xa1, 0xbc, 0x5d, 0x3e, 0x26, 0x47, 0x8d, 0xbd,
  0x2b, 0x33, 0xca, 0x3b, 0x7c, 0x5f, 0xa7, 0x3d, 0xde, 0xd4, 0x80, 0x3e,
  0x1f, 0xa8, 0xa7, 0x3e, 0x7c, 0x5b, 0x89, 0xbe, 0x71, 0xb7, 0x05, 0xbe,
  0x21, 0x8d, 0xab, 0xbd, 0x32, 0x89, 0x58, 0x3e, 0xd3, 0x4e, 0x1b, 0x3d,
  0x34, 0xf2, 0xe4, 0xbd, 0x36, 0x55, 0x00, 0xbc, 0x23, 0x65, 0x3c, 0x3e,
  0xa0, 0x9a, 0x96, 0xbb, 0x12, 0xb6, 0xa5, 0x3d, 0x56, 0xfa, 0xff, 0xff,
  0x04, 0x00, 0x00, 0x00, 0x04, 0x00, 0x00, 0x00, 0xd2, 0xf9, 0xe8, 0x3d,
  0x66, 0xfa, 0xff, 0xff, 0x04, 0x00, 0x00, 0x00, 0x00, 0x05, 0x00, 0x00,
  0x70, 0x82, 0x88, 0x3e, 0x65, 0xab, 0xd6, 0x3d, 0x44, 0x7e, 0xbd, 0x3e,
  0x2f, 0xf1, 0xb7, 0x3e, 0x3b, 0x07, 0xbf, 0xbb, 0xde, 0x8c, 0x17, 0xbd,
  0x2a, 0xb0, 0x4b, 0x3e, 0xaf, 0xae, 0x0c, 0x3f, 0xad, 0xf7, 0xbb, 0x3e,
  0xfc, 0x7e, 0xa4, 0xbc, 0xaf, 0xe0, 0x50, 0x3d, 0xb3, 0x44, 0x3b, 0xbe,
  0xd2, 0x73, 0x23, 0xbe, 0xc1, 0x36, 0x0e, 0xbe, 0xfb, 0xe7, 0xc4, 0xbc,
  0x33, 0xe4, 0xe5, 0xbe, 0xbc, 0x96, 0xb3, 0xbe, 0xcc, 0x5b, 0x84, 0xbe,
  0xf9, 0x6d, 0xbe, 0xbe, 0x88, 0x6c, 0x77, 0x3c, 0x4d, 0x4a, 0x3e, 0x3d,
  0xaa, 0x18, 0xd4, 0xbe, 0x52, 0xb3, 0x44, 0xbe, 0x49, 0xe6, 0xad, 0xbe,
  0xf3, 0x6e, 0xc3, 0x3b, 0x56, 0x8c, 0xdb, 0x3c, 0xcc, 0x43, 0x8b, 0xbe,
  0x15, 0xa9, 0x4e, 0xbe, 0x95, 0x85, 0x4b, 0xbe, 0x4b, 0xd8, 0x00, 0xbc,
  0xbb, 0x98, 0xd3, 0xbe, 0xba, 0x86, 0x64, 0xbf, 0xb3, 0x4e, 0x1b, 0x3f,
  0x6e, 0x1d, 0x41, 0xbf, 0xbc, 0x33, 0xae, 0xbd, 0x20, 0x96, 0xd1, 0xbe,
  0x43, 0xcc, 0x4f, 0xbf, 0xed, 0x5f, 0x94, 0x3e, 0x62, 0x0d, 0x1c, 0xbf,
  0x38, 0x12, 0xf9, 0xbb, 0x4a, 0x23, 0x4f, 0xbd, 0x2c, 0x35, 0x32, 0x3d,
  0x1c, 0x49, 0x9c, 0xbd, 0x46, 0x6c, 0x4f, 0xbe, 0x92, 0x34, 0x19, 0x3c,
  0xa2, 0x10, 0x64, 0xbe, 0x7c, 0x31, 0xc1, 0x3d, 0xc9, 0x77, 0x12, 0xbe,
  0x12, 0x2e, 0x12, 0xbe, 0xe4, 0xc7, 0xa0, 0xb8, 0x5e, 0x80, 0xe7, 0xbd,
  0x88, 0x9b, 0x39, 0x3e, 0x9e, 0xc7, 0x70, 0x3d, 0x44, 0x20, 0xa4, 0x3e,
  0xd2, 0xd7, 0x30, 0xbd, 0x2b, 0xa1, 0x16, 0x3e, 0x3b, 0x88, 0xd0, 0x3d,
  0xe2, 0xfa, 0xbf, 0x3e, 0x35, 0x7e, 0x2d, 0xbd, 0xbb, 0xfd, 0xcd, 0x3c,
  0x03, 0xa5, 0x70, 0xbc, 0x57, 0xd3, 0x3d, 0x3c, 0xab, 0x54, 0x09, 0x3f,
  0x06, 0x11, 0x7c, 0x3e, 0x61, 0x54, 0x0d, 0xbd, 0xaf, 0xb6, 0x90, 0x3c,
  0x65, 0x51, 0x9d, 0x3e, 0xf1, 0xbe, 0x48, 0x3e, 0xb0, 0x9e, 0xe3, 0x3d,
  0x77, 0x7e, 0x9e, 0x3d, 0xf5, 0x2b, 0xde, 0x3d, 0xe2, 0x8e, 0x4f, 0xbe,
  0x97, 0x37, 0xcd, 0xbd, 0xd4, 0x3c, 0x61, 0x3e, 0xfe, 0x30, 0xf3, 0xbc,
  0x39, 0x6c, 0x57, 0x3e, 0x01, 0xd9, 0xc1, 0x3d, 0xb9, 0x7d, 0xa5, 0x3e,
  0x79, 0x67, 0x17, 0x3e, 0xd8, 0x7c, 0xc1, 0xbc, 0x68, 0x38, 0xea, 0xbc,
  0xaf, 0x99, 0x28, 0xbe, 0xbc, 0x3c, 0xd0, 0x3e, 0x77, 0x3a, 0x14, 0x3e,
  0xc7, 0xa6, 0x0d, 0xbd, 0x4d, 0xf5, 0x54, 0x3e, 0x4e, 0x2c, 0x56, 0x3d,
  0xd3, 0xf0, 0xe0, 0x3d, 0xb6, 0x94, 0xba, 0xbd, 0x5f, 0xa5, 0x13, 0x3e,
  0x9d, 0x72, 0xa8, 0x3c, 0x1b, 0x9b, 0x95, 0xbe, 0xc9, 0x96, 0x43, 0x3e,
  0xdc, 0xea, 0x49, 0xbe, 0x04, 0xa2, 0x9f, 0xbd, 0x4c, 0x98, 0x3f, 0x3d,
  0x96, 0x6f, 0xc7, 0xbe, 0xa3, 0x17, 0x80, 0xbe, 0xbe, 0x8a, 0xdf, 0xbe,
  0x39, 0x8c, 0x9c, 0xbb, 0x30, 0xb9, 0xa4, 0xbe, 0x35, 0xa6, 0x69, 0x3e,
  0xfe, 0x20, 0x16, 0xbf, 0x75, 0xbc, 0x08, 0x3e, 0xa6, 0xae, 0x5c, 0xbe,
  0xbe, 0xd3, 0xa2, 0x3d, 0xb4, 0x32, 0x3d, 0x3e, 0xa2, 0x66, 0x22, 0xbf,
  0xf2, 0xe3, 0x81, 0x3e, 0x02, 0xa5, 0xda, 0x3d, 0x6b, 0xf9, 0xbd, 0xbe,
  0x4a, 0x43, 0x1e, 0x3c, 0xaf, 0x64, 0x08, 0xbe, 0x9f, 0x00, 0x26, 0xbe,
  0x53, 0x70, 0x89, 0x3d, 0xbe, 0x7f, 0x89, 0xbe, 0xdd, 0xbe, 0xf3, 0xbd,
  0xf1, 0x37, 0xf1, 0x3c, 0x43, 0x3c, 0x2f, 0x3b, 0xb9, 0x5d, 0x51, 0x3d,
  0xba, 0x94, 0xcc, 0xbe, 0x0f, 0x84, 0xb6, 0x3d, 0xe7, 0x33, 0xc5, 0xbe,
  0xbe, 0x70, 0x85, 0xbe, 0x33, 0x63, 0xca, 0xbd, 0x44, 0xe2, 0x1b, 0x3d,
  0xdf, 0x01, 0x34, 0x3e, 0xb8, 0x0b, 0xa0, 0xbe, 0xf6, 0x96, 0x7e, 0xbc,
  0xe1, 0xba, 0xf2, 0x3d, 0xa2, 0x8b, 0xf3, 0xbe, 0xcd, 0x8b, 0xf6, 0xbe,
  0x6c, 0xc6, 0x92, 0x3d, 0xc7, 0x26, 0xbf, 0x3c, 0xa1, 0x19, 0x1c, 0x3a,
  0x6c, 0x2e, 0x6c, 0xbe, 0xb3, 0xce, 0xe2, 0xbe, 0xf0, 0x9f, 0x53, 0xbd,
  0x7b, 0xdb, 0xbb, 0xbe, 0x09, 0xd6, 0x96, 0xbc, 0xec, 0x8b, 0x5d, 0xbe,
  0x4d, 0xfc, 0x15, 0xbe, 0xfe, 0xf8, 0x2a, 0xbe, 0x38, 0x8f, 0xa7, 0xbe,
  0x40, 0x83, 0xc0, 0xbd, 0xea, 0x68, 0x57, 0xbe, 0xba, 0xda, 0xea, 0xbe,
  0xf8, 0x11, 0xaf, 0x3e, 0xee, 0x04, 0xfa, 0xbe, 0x5d, 0x99, 0x25, 0xbd,
  0xe5, 0x19, 0x83, 0xbe, 0x58, 0x2e, 0x96, 0xbe, 0xaa, 0xd4, 0x1d, 0xbe,
  0x0a, 0x25, 0xc0, 0xbe, 0x65, 0x99, 0x20, 0xbc, 0x81, 0xe3, 0xa6, 0xbd,
  0xf9, 0x44, 0xb3, 0xbe, 0x02, 0x29, 0x91, 0x3e, 0xce, 0x24, 0x98, 0x3d,
  0xe5, 0x11, 0xd4, 0xba, 0xad, 0xe6, 0x0e, 0x3e, 0x6d, 0x79, 0x2b, 0xbe,
  0xa6, 0xff, 0x0a, 0xbe, 0x49, 0x7d, 0x29, 0xbe, 0x6e, 0x89, 0x08, 0xbe,
  0x24, 0x1b, 0xd4, 0x3d, 0x40, 0x0a, 0x13, 0x3e, 0xac, 0x13, 0xca, 0x3d,
  0xf1, 0x4b, 0x65, 0xbb, 0x7a, 0x93, 0xf8, 0x3d, 0xab, 0xa8, 0xc2, 0xbd,
  0x0f, 0x49, 0x08, 0x3e, 0x28, 0x7c, 0x86, 0x3e, 0x65, 0x02, 0xb6, 0x3e,
  0xfd, 0x50, 0xd7, 0xbd, 0xd2, 0x34, 0x1d, 0x3e, 0xa4, 0x5e, 0xf5, 0xbd,
  0xf6, 0x76, 0x94, 0x3e, 0x3d, 0x4c, 0x9a, 0x3d, 0x44, 0x7d, 0x36, 0x3e,
  0xa8, 0x87, 0x1f, 0xbf, 0x76, 0x7e, 0x52, 0xbf, 0x7a, 0x42, 0x97, 0xbe,
  0xf4, 0x61, 0x2f, 0xbf, 0x29, 0x42, 0x35, 0x3c, 0xf0, 0xa5, 0x10, 0xbf,
  0x7a, 0x6f, 0x7d, 0xbf, 0x85, 0x1b, 0x9f, 0xbd, 0xe9, 0x9f, 0x38, 0xbf,
  0x4c, 0xdb, 0x18, 0x3e, 0x28, 0x4b, 0x92, 0x3e, 0xa6, 0x41, 0x16, 0x3e,
  0xb6, 0xd1, 0x31, 0xbe, 0x60, 0x4c, 0x44, 0x3e, 0x1f, 0x9b, 0xa5, 0x3d,
  0x0c, 0x7d, 0x98, 0xbd, 0xf5, 0xc8, 0xd4, 0xba, 0x67, 0x8f, 0xb1, 0xbe,
  0x6d, 0xcd, 0x5b, 0x3e, 0xd9, 0x00, 0xfd, 0xbc, 0xe8, 0xd4, 0xe3, 0xbe,
  0xcb, 0xa8, 0x05, 0xbf, 0x31, 0x40, 0x80, 0xbe, 0xa7, 0x22, 0xf9, 0xbe,
  0xd2, 0x7a, 0x1a, 0xba, 0x3c, 0xae, 0xb8, 0xbe, 0x80, 0x81, 0xd6, 0xbe,
  0xb3, 0xdb, 0xb4, 0xbe, 0xd0, 0xb4, 0x4a, 0xbe, 0x0b, 0x81, 0x82, 0x3c,
  0x5e, 0xe4, 0x67, 0xbe, 0x76, 0x39, 0xd0, 0xbe, 0xa8, 0x0b, 0x03, 0x3e,
  0x79, 0x2b, 0x5e, 0xbd, 0xb3, 0x3f, 0xb9, 0x3b, 0x90, 0x2a, 0x69, 0xbe,
  0xac, 0xf5, 0x22, 0xbe, 0x0b, 0xff, 0x30, 0xbe, 0xbc, 0xf2, 0xe2, 0x3d,
  0x7b, 0x84, 0x8d, 0xb9, 0x1f, 0x42, 0x64, 0xbe, 0x55, 0xcf, 0xd0, 0x3e,
  0x68, 0xac, 0x8b, 0xbd, 0x59, 0x46, 0x7f, 0x3c, 0x66, 0x2f, 0x97, 0xbd,
  0x2b, 0xc5, 0x51, 0xbe, 0xb4, 0x69, 0x04, 0x3e, 0x2e, 0x61, 0xd3, 0xbe,
  0xa3, 0xde, 0x57, 0xbe, 0xaa, 0xd9, 0xe6, 0xbd, 0x6d, 0x1e, 0xa4, 0xbe,
  0x7f, 0xb1, 0xc3, 0xbe, 0xc4, 0x2d, 0x6b, 0x3e, 0x8e, 0x19, 0x97, 0xbe,
  0x92, 0xb7, 0xcc, 0xbd, 0xde, 0xa6, 0xb7, 0xbd, 0x70, 0x85, 0x39, 0xbe,
  0x57, 0x8e, 0xb7, 0x3e, 0x84, 0xeb, 0xae, 0xbd, 0x73, 0xbb, 0xb3, 0x3c,
  0xa1, 0xbb, 0xfb, 0x3b, 0x08, 0x5d, 0xa9, 0xbd, 0xb3, 0x3e, 0x4a, 0xbe,
  0xac, 0x92, 0x36, 0xbd, 0xce, 0x22, 0x10, 0x3c, 0x9b, 0x5f, 0xaf, 0xbe,
  0x9c, 0xfb, 0x95, 0xbe, 0x9d, 0x3f, 0x53, 0xbe, 0x9b, 0xd0, 0xc3, 0xbe,
  0x45, 0x5b, 0xb3, 0x3b, 0x34, 0x66, 0x43, 0xbd, 0x2e, 0x7d, 0xe1, 0xbe,
  0x27, 0xa7, 0x8d, 0xbb, 0x68, 0x65, 0x44, 0x3d, 0x3e, 0x06, 0x3d, 0xbd,
  0x0e, 0xd7, 0xdc, 0xbe, 0x55, 0x5b, 0xb9, 0xbd, 0xe3, 0x13, 0x82, 0xbd,
  0xbc, 0x8f, 0xdf, 0xbe, 0xe7, 0x95, 0x5c, 0xbc, 0x84, 0x50, 0x4e, 0xbe,
  0x2e, 0xa9, 0x0a, 0xbd, 0xc3, 0x31, 0xaa, 0xbe, 0x7c, 0x74, 0x8b, 0xbe,
  0xa9, 0x1c, 0xd8, 0xbd, 0x4f, 0xcf, 0xa1, 0x3d, 0x3d, 0xff, 0x4f, 0x3e,
  0x64, 0xe1, 0xb0, 0xbe, 0xf5, 0x11, 0x9a, 0xbd, 0x78, 0xcb, 0xdf, 0xbd,
  0xa8, 0xae, 0x29, 0xbe, 0x7f, 0x60, 0xbf, 0x3e, 0x0e, 0xbe, 0xfa, 0xbe,
  0xc4, 0xa0, 0xcf, 0xbe, 0xfc, 0x6b, 0x43, 0xbe, 0x7e, 0x7c, 0x84, 0xbe,
  0x18, 0xcf, 0x33, 0x3e, 0xc4, 0xc9, 0x31, 0xbe, 0xf9, 0x85, 0x9a, 0xbe,
  0xb1, 0xac, 0x86, 0xbd, 0xa3, 0xb5, 0xaf, 0xbe, 0xd2, 0xee, 0x70, 0xbe,
  0xf9, 0xef, 0x3e, 0x3e, 0xd4, 0x81, 0x3e, 0xbe, 0x7d, 0x0e, 0x48, 0xbd,
  0x87, 0xea, 0x10, 0xbe, 0xbe, 0xef, 0xa6, 0xbe, 0x55, 0xe7, 0x5f, 0xbe,
  0x81, 0x0d, 0xe8, 0xbe, 0x3d, 0x7f, 0x2f, 0xbc, 0x52, 0x98, 0x51, 0xbe,
  0x87, 0x58, 0x5d, 0xbe, 0x26, 0x55, 0x88, 0x3d, 0x6a, 0x16, 0x05, 0xbe,
  0x19, 0xb0, 0x45, 0x3b, 0xdf, 0x50, 0x08, 0xbe, 0xb7, 0xdb, 0x1c, 0xbe,
  0x97, 0x05, 0xf2, 0xbd, 0x53, 0xe1, 0x5a, 0xbe, 0x41, 0xbe, 0xa4, 0x3c,
  0x2d, 0xd0, 0xa4, 0xbe, 0x5b, 0x68, 0x82, 0x3d, 0x77, 0x97, 0xe1, 0xbd,
  0x1a, 0x2b, 0xf4, 0xbe, 0xce, 0x2f, 0x0d, 0x3a, 0xc8, 0xc2, 0xba, 0xbe,
  0x72, 0x7f, 0xe0, 0xbe, 0x61, 0x04, 0x81, 0xbe, 0x68, 0x15, 0xcc, 0xbe,
  0x07, 0x57, 0xa4, 0x38, 0x09, 0x96, 0xbc, 0xbe, 0x31, 0x0b, 0xe6, 0xbe,
  0xb0, 0xe7, 0x0b, 0x3f, 0xf0, 0x6b, 0x90, 0xbe, 0xf8, 0x5c, 0x6b, 0xbc,
  0xde, 0x3d, 0xbd, 0xbc, 0xc6, 0x24, 0xd3, 0xbe, 0xca, 0x51, 0x0a, 0x3f,
  0x97, 0x58, 0xc8, 0xbd, 0xae, 0x63, 0x00, 0xbc, 0x72, 0xff, 0xff, 0xff,
  0x04, 0x00, 0x00, 0x00, 0x80, 0x00, 0x00, 0x00, 0x64, 0x26, 0x89, 0x3d,
  0xdd, 0x26, 0x8f, 0x3c, 0xc3, 0x3c, 0x33, 0xbe, 0x42, 0xfd, 0x3f, 0xbc,
  0xa2, 0xf2, 0x72, 0xbe, 0x45, 0xf8, 0x01, 0x3e, 0xaa, 0x2f, 0xd3, 0x3c,
  0xe1, 0x85, 0x74, 0x3d, 0x4c, 0x1d, 0xc8, 0x3c, 0x4f, 0x7a, 0x72, 0xbe,
  0xa4, 0xe7, 0xa5, 0xbe, 0x87, 0xc1, 0xbf, 0xbe, 0x3d, 0x8c, 0xc5, 0xbe,
  0x0d, 0xd5, 0x61, 0xbe, 0x95, 0x1e, 0x80, 0xbe, 0x12, 0x07, 0xff, 0xbd,
  0xa7, 0x46, 0x2c, 0xbc, 0x66, 0xec, 0x0d, 0x3d, 0x7e, 0xde, 0x41, 0xbf,
  0x71, 0xd4, 0x42, 0x3d, 0x7c, 0x41, 0xe1, 0xbe, 0x91, 0xc7, 0xa1, 0xbd,
  0x82, 0x2d, 0xe5, 0x3d, 0x82, 0x17, 0x6a, 0xbe, 0x5c, 0x26, 0x17, 0xbe,
  0x04, 0x5a, 0x65, 0xbe, 0x72, 0x79, 0x96, 0x3d, 0xa5, 0x4a, 0x6c, 0x3e,
  0xaa, 0x4a, 0x76, 0xbe, 0x51, 0xdf, 0x2b, 0xbe, 0x10, 0xaa, 0xd1, 0xb9,
  0xb0, 0xf6, 0x4d, 0xbe, 0x00, 0x00, 0x06, 0x00, 0x08, 0x00, 0x04, 0x00,
  0x06, 0x00, 0x00, 0x00, 0x04, 0x00, 0x00, 0x00, 0x00, 0x01, 0x00, 0x00,
  0x39, 0xf7, 0xbe, 0x3b, 0xd8, 0xf2, 0xcf, 0xbb, 0x8f, 0xdd, 0x9a, 0x3e,
  0x1d, 0xd0, 0x89, 0x3d, 0x19, 0x8d, 0x4b, 0xbe, 0x68, 0x76, 0x33, 0xbc,
  0x68, 0x86, 0x61, 0xbc, 0x78, 0xc0, 0xf4, 0xbd, 0x7c, 0x07, 0x76, 0x3d,
  0xe9, 0xcb, 0xc8, 0x3b, 0x75, 0xe8, 0x57, 0xbd, 0x4b, 0x44, 0xbd, 0xbc,
  0xb4, 0x37, 0x9a, 0x3b, 0x33, 0x54, 0x9e, 0xbc, 0x38, 0x24, 0x15, 0x3e,
  0xce, 0xcd, 0x01, 0x3d, 0x96, 0x6a, 0x7c, 0x3e, 0x66, 0xbd, 0x09, 0x3d,
  0x79, 0x89, 0x0d, 0xbe, 0x25, 0x71, 0xa6, 0xbc, 0x99, 0x52, 0x74, 0x3e,
  0x99, 0xff, 0x8d, 0x3b, 0x27, 0x39, 0x1d, 0xbc, 0xc2, 0x57, 0xb3, 0x3b,
  0xb8, 0x4b, 0x45, 0x3e, 0x28, 0xc0, 0x14, 0x3e, 0x0f, 0x2b, 0xbf, 0x3d,
  0x8b, 0x4f, 0x11, 0xbd, 0x65, 0x52, 0x0e, 0x3c, 0xc5, 0x6b, 0x7f, 0xbc,
  0x86, 0xab, 0x7e, 0x3d, 0xbc, 0x2c, 0xad, 0xbc, 0x42, 0xf9, 0x46, 0xba,
  0x11, 0x71, 0xfb, 0xbd, 0x92, 0xf7, 0x86, 0x3d, 0x4f, 0xcc, 0xa3, 0x3c,
  0x2f, 0x23, 0x40, 0x3c, 0x2a, 0x31, 0x25, 0x3c, 0x1d, 0x4e, 0x18, 0x3c,
  0x93, 0x5a, 0x23, 0x3c, 0x3b, 0x57, 0xe5, 0x3d, 0x4b, 0xfb, 0xc2, 0xbd,
  0x30, 0x24, 0x35, 0xbb, 0x6e, 0xe3, 0x04, 0xbd, 0x2e, 0x9b, 0x90, 0xbd,
  0xab, 0xb7, 0xce, 0xbd, 0x9f, 0xe8, 0x36, 0x3b, 0xd9, 0xd7, 0xc1, 0xbc,
  0x1c, 0xba, 0x47, 0x3e, 0x5f, 0xee, 0x5e, 0x3d, 0x2b, 0xb0, 0x0d, 0xbd,
  0xd3, 0x19, 0x3f, 0xbd, 0x85, 0xda, 0x2d, 0x3e, 0x62, 0x62, 0x8f, 0x3d,
  0x61, 0xbd, 0xec, 0xbc, 0x06, 0x9c, 0x47, 0xbb, 0x0e, 0x9b, 0xb3, 0xbc,
  0x55, 0x4d, 0xe6, 0x3d, 0xb6, 0xc8, 0x60, 0x3d, 0x8a, 0xb3, 0x3e, 0xbe,
  0xed, 0x33, 0x9d, 0xbb, 0xb4, 0xca, 0x7a, 0x3e, 0x05, 0xb2, 0xb2, 0xbd,
  0x01, 0x84, 0xcf, 0xbc, 0x00, 0xf8, 0xff, 0xff, 0x04, 0xf8, 0xff, 0xff,
  0x0f, 0x00, 0x00, 0x00, 0x4d, 0x4c, 0x49, 0x52, 0x20, 0x43, 0x6f, 0x6e,
  0x76, 0x65, 0x72, 0x74, 0x65, 0x64, 0x2e, 0x00, 0x01, 0x00, 0x00, 0x00,
  0x14, 0x00, 0x00, 0x00, 0x00, 0x00, 0x0e, 0x00, 0x18, 0x00, 0x14, 0x00,
  0x10, 0x00, 0x0c, 0x00, 0x08, 0x00, 0x04, 0x00, 0x0e, 0x00, 0x00, 0x00,
  0x14, 0x00, 0x00, 0x00, 0x1c, 0x00, 0x00, 0x00, 0x74, 0x01, 0x00, 0x00,
  0x78, 0x01, 0x00, 0x00, 0x7c, 0x01, 0x00, 0x00, 0x04, 0x00, 0x00, 0x00,
  0x6d, 0x61, 0x69, 0x6e, 0x00, 0x00, 0x00, 0x00, 0x05, 0x00, 0x00, 0x00,
  0x2c, 0x01, 0x00, 0x00, 0xc8, 0x00, 0x00, 0x00, 0x90, 0x00, 0x00, 0x00,
  0x3c, 0x00, 0x00, 0x00, 0x04, 0x00, 0x00, 0x00, 0x56, 0xff, 0xff, 0xff,
  0x14, 0x00, 0x00, 0x00, 0x00, 0x00, 0x00, 0x08, 0x10, 0x00, 0x00, 0x00,
  0x14, 0x00, 0x00, 0x00, 0x03, 0x00, 0x00, 0x00, 0x88, 0xf8, 0xff, 0xff,
  0x01, 0x00, 0x00, 0x00, 0x0d, 0x00, 0x00, 0x00, 0x03, 0x00, 0x00, 0x00,
  0x0c, 0x00, 0x00, 0x00, 0x01, 0x00, 0x00, 0x00, 0x04, 0x00, 0x00, 0x00,
  0x8a, 0xff, 0xff, 0xff, 0x20, 0x00, 0x00, 0x00, 0x00, 0x00, 0x00, 0x08,
  0x20, 0x00, 0x00, 0x00, 0x24, 0x00, 0x00, 0x00, 0x03, 0x00, 0x00, 0x00,
  0x0c, 0x00, 0x08, 0x00, 0x07, 0x00, 0x00, 0x00, 0x00, 0x00, 0x06, 0x00,
  0x0c, 0x00, 0x00, 0x00, 0x00, 0x00, 0x01, 0x01, 0x01, 0x00, 0x00, 0x00,
  0x0c, 0x00, 0x00, 0x00, 0x03, 0x00, 0x00, 0x00, 0x0b, 0x00, 0x00, 0x00,
  0x08, 0x00, 0x00, 0x00, 0x05, 0x00, 0x00, 0x00, 0x00, 0x00, 0x0a, 0x00,
  0x10, 0x00, 0x0c, 0x00, 0x08, 0x00, 0x04, 0x00, 0x0a, 0x00, 0x00, 0x00,
  0x0c, 0x00, 0x00, 0x00, 0x10, 0x00, 0x00, 0x00, 0x02, 0x00, 0x00, 0x00,
  0x01, 0x00, 0x00, 0x00, 0x0b, 0x00, 0x00, 0x00, 0x02, 0x00, 0x00, 0x00,
  0x0a, 0x00, 0x00, 0x00, 0x06, 0x00, 0x00, 0x00, 0x00, 0x00, 0x0e, 0x00,
  0x18, 0x00, 0x14, 0x00, 0x10, 0x00, 0x0c, 0x00, 0x0b, 0x00, 0x04, 0x00,
  0x0e, 0x00, 0x00, 0x00, 0x20, 0x00, 0x00, 0x00, 0x00, 0x00, 0x00, 0x01,
  0x2c, 0x00, 0x00, 0x00, 0x30, 0x00, 0x00, 0x00, 0x01, 0x00, 0x00, 0x00,
  0x0c, 0x00, 0x14, 0x00, 0x13, 0x00, 0x0c, 0x00, 0x08, 0x00, 0x07, 0x00,
  0x0c, 0x00, 0x00, 0x00, 0x00, 0x00, 0x00, 0x01, 0x01, 0x00, 0x00, 0x00,
  0x01, 0x00, 0x00, 0x00, 0x00, 0x00, 0x00, 0x01, 0x01, 0x00, 0x00, 0x00,
  0x0a, 0x00, 0x00, 0x00, 0x03, 0x00, 0x00, 0x00, 0x09, 0x00, 0x00, 0x00,
  0x03, 0x00, 0x00, 0x00, 0x02, 0x00, 0x00, 0x00, 0x00, 0x00, 0x0e, 0x00,
  0x14, 0x00, 0x00, 0x00, 0x10, 0x00, 0x0c, 0x00, 0x0b, 0x00, 0x04, 0x00,
  0x0e, 0x00, 0x00, 0x00, 0x10, 0x00, 0x00, 0x00, 0x00, 0x00, 0x00, 0x34,
  0x0c, 0x00, 0x00, 0x00, 0x10, 0x00, 0x00, 0x00, 0x9c, 0xf9, 0xff, 0xff,
  0x01, 0x00, 0x00, 0x00, 0x09, 0x00, 0x00, 0x00, 0x02, 0x00, 0x00, 0x00,
  0x00, 0x00, 0x00, 0x00, 0x07, 0x00, 0x00, 0x00, 0x01, 0x00, 0x00, 0x00,
  0x0d, 0x00, 0x00, 0x00, 0x01, 0x00, 0x00, 0x00, 0x00, 0x00, 0x00, 0x00,
  0x0e, 0x00, 0x00, 0x00, 0x0c, 0x06, 0x00, 0x00, 0xa4, 0x05, 0x00, 0x00,
  0x30, 0x05, 0x00, 0x00, 0xd8, 0x04, 0x00, 0x00, 0x7c, 0x04, 0x00, 0x00,
  0x20, 0x04, 0x00, 0x00, 0xd0, 0x03, 0x00, 0x00, 0x5c, 0x03, 0x00, 0x00,
  0xe0, 0x02, 0x00, 0x00, 0x64, 0x02, 0x00, 0x00, 0x60, 0x01, 0x00, 0x00,
  0xfc, 0x00, 0x00, 0x00, 0x60, 0x00, 0x00, 0x00, 0x04, 0x00, 0x00, 0x00,
  0x42, 0xfa, 0xff, 0xff, 0x00, 0x00, 0x00, 0x01, 0x14, 0x00, 0x00, 0x00,
  0x1c, 0x00, 0x00, 0x00, 0x1c, 0x00, 0x00, 0x00, 0x0e, 0x00, 0x00, 0x00,
  0x34, 0x00, 0x00, 0x00, 0x02, 0x00, 0x00, 0x00, 0xff, 0xff, 0xff, 0xff,
  0x01, 0x00, 0x00, 0x00, 0x28, 0xfa, 0xff, 0xff, 0x19, 0x00, 0x00, 0x00,
  0x53, 0x74, 0x61, 0x74, 0x65, 0x66, 0x75, 0x6c, 0x50, 0x61, 0x72, 0x74,
  0x69, 0x74, 0x69, 0x6f, 0x6e, 0x65, 0x64, 0x43, 0x61, 0x6c, 0x6c, 0x3a,
  0x30, 0x00, 0x00, 0x00, 0x02, 0x00, 0x00, 0x00, 0x01, 0x00, 0x00, 0x00,
  0x01, 0x00, 0x00, 0x00, 0x9a, 0xfa, 0xff, 0xff, 0x00, 0x00, 0x00, 0x01,
  0x14, 0x00, 0x00, 0x00, 0x1c, 0x00, 0x00, 0x00, 0x1c, 0x00, 0x00, 0x00,
  0x0d, 0x00, 0x00, 0x00, 0x74, 0x00, 0x00, 0x00, 0x02, 0x00, 0x00, 0x00,
  0xff, 0xff, 0xff, 0xff, 0x40, 0x00, 0x00, 0x00, 0x80, 0xfa, 0xff, 0xff,
  0x58, 0x00, 0x00, 0x00, 0x73, 0x65, 0x71, 0x75, 0x65, 0x6e, 0x74, 0x69,
  0x61, 0x6c, 0x5f, 0x31, 0x30, 0x2f, 0x64, 0x65, 0x6e, 0x73, 0x65, 0x5f,
  0x32, 0x30, 0x2f, 0x4d, 0x61, 0x74, 0x4d, 0x75, 0x6c, 0x3b, 0x73, 0x65,
  0x71, 0x75, 0x65, 0x6e, 0x74, 0x69, 0x61, 0x6c, 0x5f, 0x31, 0x30, 0x2f,
  0x64, 0x65, 0x6e, 0x73, 0x65, 0x5f, 0x32, 0x30, 0x2f, 0x52, 0x65, 0x6c,
  0x75, 0x3b, 0x73, 0x65, 0x71, 0x75, 0x65, 0x6e, 0x74, 0x69, 0x61, 0x6c,
  0x5f, 0x31, 0x30, 0x2f, 0x64, 0x65, 0x6e, 0x73, 0x65, 0x5f, 0x32, 0x30,
  0x2f, 0x42, 0x69, 0x61, 0x73, 0x41, 0x64, 0x64, 0x00, 0x00, 0x00, 0x00,
  0x02, 0x00, 0x00, 0x00, 0x01, 0x00, 0x00, 0x00, 0x40, 0x00, 0x00, 0x00,
  0x32, 0xfb, 0xff, 0xff, 0x00, 0x00, 0x00, 0x01, 0x14, 0x00, 0x00, 0x00,
  0x1c, 0x00, 0x00, 0x00, 0x1c, 0x00, 0x00, 0x00, 0x0c, 0x00, 0x00, 0x00,
  0x3c, 0x00, 0x00, 0x00, 0x02, 0x00, 0x00, 0x00, 0xff, 0xff, 0xff, 0xff,
  0x20, 0x00, 0x00, 0x00, 0x18, 0xfb, 0xff, 0xff, 0x20, 0x00, 0x00, 0x00,
  0x73, 0x65, 0x71, 0x75, 0x65, 0x6e, 0x74, 0x69, 0x61, 0x6c, 0x5f, 0x31,
  0x30, 0x2f, 0x66, 0x6c, 0x61, 0x74, 0x74, 0x65, 0x6e, 0x5f, 0x31, 0x30,
  0x2f, 0x52, 0x65, 0x73, 0x68, 0x61, 0x70, 0x65, 0x00, 0x00, 0x00, 0x00,
  0x02, 0x00, 0x00, 0x00, 0x01, 0x00, 0x00, 0x00, 0x20, 0x00, 0x00, 0x00,
  0x92, 0xfb, 0xff, 0xff, 0x00, 0x00, 0x00, 0x01, 0x14, 0x00, 0x00, 0x00,
  0x24, 0x00, 0x00, 0x00, 0x24, 0x00, 0x00, 0x00, 0x0b, 0x00, 0x00, 0x00,
  0xd4, 0x00, 0x00, 0x00, 0x04, 0x00, 0x00, 0x00, 0xff, 0xff, 0xff, 0xff,
  0x01, 0x00, 0x00, 0x00, 0x01, 0x00, 0x00, 0x00, 0x20, 0x00, 0x00, 0x00,
  0x80, 0xfb, 0xff, 0xff, 0xb1, 0x00, 0x00, 0x00, 0x73, 0x65, 0x71, 0x75,
  0x65, 0x6e, 0x74, 0x69, 0x61, 0x6c, 0x5f, 0x31, 0x30, 0x2f, 0x63, 0x6f,
  0x6e, 0x76, 0x31, 0x64, 0x5f, 0x31, 0x30, 0x2f, 0x52, 0x65, 0x6c, 0x75,
  0x3b, 0x73, 0x65, 0x71, 0x75, 0x65, 0x6e, 0x74, 0x69, 0x61, 0x6c, 0x5f,
  0x31, 0x30, 0x2f, 0x63, 0x6f, 0x6e, 0x76, 0x31, 0x64, 0x5f, 0x31, 0x30,
  0x2f, 0x42, 0x69, 0x61, 0x73, 0x41, 0x64, 0x64, 0x3b, 0x73, 0x65, 0x71,
  0x75, 0x65, 0x6e, 0x74, 0x69, 0x61, 0x6c, 0x5f, 0x31, 0x30, 0x2f, 0x63,
  0x6f, 0x6e, 0x76, 0x31, 0x64, 0x5f, 0x31, 0x30, 0x2f, 0x43, 0x6f, 0x6e,
  0x76, 0x31, 0x44, 0x2f, 0x53, 0x71, 0x75, 0x65, 0x65, 0x7a, 0x65, 0x3b,
  0x73, 0x65, 0x71, 0x75, 0x65, 0x6e, 0x74, 0x69, 0x61, 0x6c, 0x5f, 0x31,
  0x30, 0x2f, 0x63, 0x6f, 0x6e, 0x76, 0x31, 0x64, 0x5f, 0x31, 0x30, 0x2f,
  0x42, 0x69, 0x61, 0x73, 0x41, 0x64, 0x64, 0x2f, 0x52, 0x65, 0x61, 0x64,
  0x56, 0x61, 0x72, 0x69, 0x61, 0x62, 0x6c, 0x65, 0x4f, 0x70, 0x3b, 0x73,
  0x65, 0x71, 0x75, 0x65, 0x6e, 0x74, 0x69, 0x61, 0x6c, 0x5f, 0x31, 0x30,
  0x2f, 0x63, 0x6f, 0x6e, 0x76, 0x31, 0x64, 0x5f, 0x31, 0x30, 0x2f, 0x43,
  0x6f, 0x6e, 0x76, 0x31, 0x44, 0x00, 0x00, 0x00, 0x04, 0x00, 0x00, 0x00,
  0x01, 0x00, 0x00, 0x00, 0x01, 0x00, 0x00, 0x00, 0x01, 0x00, 0x00, 0x00,
  0x20, 0x00, 0x00, 0x00, 0x92, 0xfc, 0xff, 0xff, 0x00, 0x00, 0x00, 0x01,
  0x14, 0x00, 0x00, 0x00, 0x24, 0x00, 0x00, 0x00, 0x24, 0x00, 0x00, 0x00,
  0x0a, 0x00, 0x00, 0x00, 0x4c, 0x00, 0x00, 0x00, 0x04, 0x00, 0x00, 0x00,
  0xff, 0xff, 0xff, 0xff, 0x01, 0x00, 0x00, 0x00, 0x02, 0x00, 0x00, 0x00,
  0x05, 0x00, 0x00, 0x00, 0x80, 0xfc, 0xff, 0xff, 0x29, 0x00, 0x00, 0x00,
  0x73, 0x65, 0x71, 0x75, 0x65, 0x6e, 0x74, 0x69, 0x61, 0x6c, 0x5f, 0x31,
  0x30, 0x2f, 0x63, 0x6f, 0x6e, 0x76, 0x31, 0x64, 0x5f, 0x31, 0x30, 0x2f,
  0x43, 0x6f, 0x6e, 0x76, 0x31, 0x44, 0x2f, 0x45, 0x78, 0x70, 0x61, 0x6e,
  0x64, 0x44, 0x69, 0x6d, 0x73, 0x00, 0x00, 0x00, 0x04, 0x00, 0x00, 0x00,
  0x01, 0x00, 0x00, 0x00, 0x01, 0x00, 0x00, 0x00, 0x02, 0x00, 0x00, 0x00,
  0x05, 0x00, 0x00, 0x00, 0x2e, 0xff, 0xff, 0xff, 0x00, 0x00, 0x00, 0x01,
  0x20, 0x00, 0x00, 0x00, 0x3c, 0x00, 0x00, 0x00, 0x09, 0x00, 0x00, 0x00,
  0x00, 0x00, 0x00, 0x09, 0x54, 0x00, 0x00, 0x00, 0x0c, 0x00, 0x0c, 0x00,
  0x00, 0x00, 0x00, 0x00, 0x08, 0x00, 0x04, 0x00, 0x0c, 0x00, 0x00, 0x00,
  0x08, 0x00, 0x00, 0x00, 0x10, 0x00, 0x00, 0x00, 0x01, 0x00, 0x00, 0x00,
  0x00, 0x00, 0x00, 0x00, 0x00, 0x00, 0x00, 0x00, 0x01, 0x00, 0x00, 0x00,
  0xfb, 0x47, 0x31, 0x3c, 0x1d, 0x00, 0x00, 0x00, 0x73, 0x65, 0x71, 0x75,
  0x65, 0x6e, 0x74, 0x69, 0x61, 0x6c, 0x5f, 0x31, 0x30, 0x2f, 0x64, 0x65,
  0x6e, 0x73, 0x65, 0x5f, 0x32, 0x30, 0x2f, 0x4d, 0x61, 0x74, 0x4d, 0x75,
  0x6c, 0x00, 0x00, 0x00, 0x02, 0x00, 0x00, 0x00, 0x40, 0x00, 0x00, 0x00,
  0x20, 0x00, 0x00, 0x00, 0xa6, 0xff, 0xff, 0xff, 0x00, 0x00, 0x00, 0x01,
  0x14, 0x00, 0x00, 0x00, 0x14, 0x00, 0x00, 0x00, 0x08, 0x00, 0x00, 0x00,
  0x00, 0x00, 0x00, 0x02, 0x3c, 0x00, 0x00, 0x00, 0x5c, 0xfd, 0xff, 0xff,
  0x2d, 0x00, 0x00, 0x00, 0x73, 0x65, 0x71, 0x75, 0x65, 0x6e, 0x74, 0x69,
  0x61, 0x6c, 0x5f, 0x31, 0x30, 0x2f, 0x63, 0x6f, 0x6e, 0x76, 0x31, 0x64,
  0x5f, 0x31, 0x30, 0x2f, 0x43, 0x6f, 0x6e, 0x76, 0x31, 0x44, 0x2f, 0x45,
  0x78, 0x70, 0x61, 0x6e, 0x64, 0x44, 0x69, 0x6d, 0x73, 0x2f, 0x64, 0x69,
  0x6d, 0x00, 0x00, 0x00, 0x00, 0x00, 0x00, 0x00, 0x00, 0x00, 0x16, 0x00,
  0x1c, 0x00, 0x18, 0x00, 0x17, 0x00, 0x10, 0x00, 0x0c, 0x00, 0x08, 0x00,
  0x00, 0x00, 0x00, 0x00, 0x00, 0x00, 0x07, 0x00, 0x16, 0x00, 0x00, 0x00,
  0x00, 0x00, 0x00, 0x01, 0x14, 0x00, 0x00, 0x00, 0x14, 0x00, 0x00, 0x00,
  0x07, 0x00, 0x00, 0x00, 0x00, 0x00, 0x00, 0x02, 0x2c, 0x00, 0x00, 0x00,
  0xcc, 0xfd, 0xff, 0xff, 0x1e, 0x00, 0x00, 0x00, 0x73, 0x65, 0x71, 0x75,
  0x65, 0x6e, 0x74, 0x69, 0x61, 0x6c, 0x5f, 0x31, 0x30, 0x2f, 0x66, 0x6c,
  0x61, 0x74, 0x74, 0x65, 0x6e, 0x5f, 0x31, 0x30, 0x2f, 0x43, 0x6f, 0x6e,
  0x73, 0x74, 0x00, 0x00, 0x01, 0x00, 0x00, 0x00, 0x02, 0x00, 0x00, 0x00,
  0xa2, 0xfe, 0xff, 0xff, 0x00, 0x00, 0x00, 0x01, 0x10, 0x00, 0x00, 0x00,
  0x10, 0x00, 0x00, 0x00, 0x06, 0x00, 0x00, 0x00, 0x3c, 0x00, 0x00, 0x00,
  0x14, 0xfe, 0xff, 0xff, 0x2d, 0x00, 0x00, 0x00, 0x73, 0x65, 0x71, 0x75,
  0x65, 0x6e, 0x74, 0x69, 0x61, 0x6c, 0x5f, 0x31, 0x30, 0x2f, 0x64, 0x65,
  0x6e, 0x73, 0x65, 0x5f, 0x32, 0x30, 0x2f, 0x42, 0x69, 0x61, 0x73, 0x41,
  0x64, 0x64, 0x2f, 0x52, 0x65, 0x61, 0x64, 0x56, 0x61, 0x72, 0x69, 0x61,
  0x62, 0x6c, 0x65, 0x4f, 0x70, 0x00, 0x00, 0x00, 0x01, 0x00, 0x00, 0x00,
  0x40, 0x00, 0x00, 0x00, 0xfa, 0xfe, 0xff, 0xff, 0x00, 0x00, 0x00, 0x01,
  0x10, 0x00, 0x00, 0x00, 0x10, 0x00, 0x00, 0x00, 0x05, 0x00, 0x00, 0x00,
  0x3c, 0x00, 0x00, 0x00, 0x6c, 0xfe, 0xff, 0xff, 0x2d, 0x00, 0x00, 0x00,
  0x73, 0x65, 0x71, 0x75, 0x65, 0x6e, 0x74, 0x69, 0x61, 0x6c, 0x5f, 0x31,
  0x30, 0x2f, 0x64, 0x65, 0x6e, 0x73, 0x65, 0x5f, 0x32, 0x31, 0x2f, 0x42,
  0x69, 0x61, 0x73, 0x41, 0x64, 0x64, 0x2f, 0x52, 0x65, 0x61, 0x64, 0x56,
  0x61, 0x72, 0x69, 0x61, 0x62, 0x6c, 0x65, 0x4f, 0x70, 0x00, 0x00, 0x00,
  0x01, 0x00, 0x00, 0x00, 0x01, 0x00, 0x00, 0x00, 0x52, 0xff, 0xff, 0xff,
  0x00, 0x00, 0x00, 0x01, 0x10, 0x00, 0x00, 0x00, 0x10, 0x00, 0x00, 0x00,
  0x04, 0x00, 0x00, 0x00, 0x2c, 0x00, 0x00, 0x00, 0xc4, 0xfe, 0xff, 0xff,
  0x1e, 0x00, 0x00, 0x00, 0x73, 0x65, 0x71, 0x75, 0x65, 0x6e, 0x74, 0x69,
  0x61, 0x6c, 0x5f, 0x31, 0x30, 0x2f, 0x63, 0x6f, 0x6e, 0x76, 0x31, 0x64,
  0x5f, 0x31, 0x30, 0x2f, 0x43, 0x6f, 0x6e, 0x76, 0x31, 0x44, 0x00, 0x00,
  0x04, 0x00, 0x00, 0x00, 0x20, 0x00, 0x00, 0x00, 0x01, 0x00, 0x00, 0x00,
  0x02, 0x00, 0x00, 0x00, 0x05, 0x00, 0x00, 0x00, 0xa6, 0xff, 0xff, 0xff,
  0x00, 0x00, 0x00, 0x01, 0x10, 0x00, 0x00, 0x00, 0x10, 0x00, 0x00, 0x00,
  0x03, 0x00, 0x00, 0x00, 0x3c, 0x00, 0x00, 0x00, 0x18, 0xff, 0xff, 0xff,
  0x2e, 0x00, 0x00, 0x00, 0x73, 0x65, 0x71, 0x75, 0x65, 0x6e, 0x74, 0x69,
  0x61, 0x6c, 0x5f, 0x31, 0x30, 0x2f, 0x63, 0x6f, 0x6e, 0x76, 0x31, 0x64,
  0x5f, 0x31, 0x30, 0x2f, 0x42, 0x69, 0x61, 0x73, 0x41, 0x64, 0x64, 0x2f,
  0x52, 0x65, 0x61, 0x64, 0x56, 0x61, 0x72, 0x69, 0x61, 0x62, 0x6c, 0x65,
  0x4f, 0x70, 0x00, 0x00, 0x01, 0x00, 0x00, 0x00, 0x20, 0x00, 0x00, 0x00,
  0x00, 0x00, 0x16, 0x00, 0x18, 0x00, 0x14, 0x00, 0x00, 0x00, 0x10, 0x00,
  0x0c, 0x00, 0x08, 0x00, 0x00, 0x00, 0x00, 0x00, 0x00, 0x00, 0x07, 0x00,
  0x16, 0x00, 0x00, 0x00, 0x00, 0x00, 0x00, 0x01, 0x10, 0x00, 0x00, 0x00,
  0x10, 0x00, 0x00, 0x00, 0x02, 0x00, 0x00, 0x00, 0x2c, 0x00, 0x00, 0x00,
  0x88, 0xff, 0xff, 0xff, 0x1d, 0x00, 0x00, 0x00, 0x73, 0x65, 0x71, 0x75,
  0x65, 0x6e, 0x74, 0x69, 0x61, 0x6c, 0x5f, 0x31, 0x30, 0x2f, 0x64, 0x65,
  0x6e, 0x73, 0x65, 0x5f, 0x32, 0x31, 0x2f, 0x4d, 0x61, 0x74, 0x4d, 0x75,
  0x6c, 0x00, 0x00, 0x00, 0x02, 0x00, 0x00, 0x00, 0x01, 0x00, 0x00, 0x00,
  0x40, 0x00, 0x00, 0x00, 0x00, 0x00, 0x16, 0x00, 0x1c, 0x00, 0x18, 0x00,
  0x00, 0x00, 0x14, 0x00, 0x10, 0x00, 0x0c, 0x00, 0x00, 0x00, 0x00, 0x00,
  0x08, 0x00, 0x07, 0x00, 0x16, 0x00, 0x00, 0x00, 0x00, 0x00, 0x00, 0x01,
  0x14, 0x00, 0x00, 0x00, 0x24, 0x00, 0x00, 0x00, 0x24, 0x00, 0x00, 0x00,
  0x01, 0x00, 0x00, 0x00, 0x44, 0x00, 0x00, 0x00, 0x03, 0x00, 0x00, 0x00,
  0xff, 0xff, 0xff, 0xff, 0x02, 0x00, 0x00, 0x00, 0x05, 0x00, 0x00, 0x00,
  0x04, 0x00, 0x04, 0x00, 0x04, 0x00, 0x00, 0x00, 0x21, 0x00, 0x00, 0x00,
  0x73, 0x65, 0x72, 0x76, 0x69, 0x6e, 0x67, 0x5f, 0x64, 0x65, 0x66, 0x61,
  0x75, 0x6c, 0x74, 0x5f, 0x63, 0x6f, 0x6e, 0x76, 0x31, 0x64, 0x5f, 0x31,
  0x30, 0x5f, 0x69, 0x6e, 0x70, 0x75, 0x74, 0x3a, 0x30, 0x00, 0x00, 0x00,
  0x03, 0x00, 0x00, 0x00, 0x01, 0x00, 0x00, 0x00, 0x02, 0x00, 0x00, 0x00,
  0x05, 0x00, 0x00, 0x00, 0x04, 0x00, 0x00, 0x00, 0x50, 0x00, 0x00, 0x00,
  0x34, 0x00, 0x00, 0x00, 0x24, 0x00, 0x00, 0x00, 0x10, 0x00, 0x00, 0x00,
  0x0c, 0x00, 0x10, 0x00, 0x0f, 0x00, 0x00, 0x00, 0x08, 0x00, 0x04, 0x00,
  0x0c, 0x00, 0x00, 0x00, 0x09, 0x00, 0x00, 0x00, 0x09, 0x00, 0x00, 0x00,
  0x00, 0x00, 0x00, 0x09, 0xe8, 0xff, 0xff, 0xff, 0x16, 0x00, 0x00, 0x00,
  0x00, 0x00, 0x00, 0x16, 0xf4, 0xff, 0xff, 0xff, 0x03, 0x00, 0x00, 0x00,
  0x00, 0x00, 0x00, 0x03, 0x0c, 0x00, 0x0c, 0x00, 0x0b, 0x00, 0x00, 0x00,
  0x00, 0x00, 0x04, 0x00, 0x0c, 0x00, 0x00, 0x00, 0x46, 0x00, 0x00, 0x00,
  0x00, 0x00, 0x00, 0x46
};
unsigned int pwm_model_tflite_len = 6784;
