#ifndef SINE_MODEL_H
#define SINE_MODEL_H


unsigned int sine_model_len = 3168;
unsigned char sine_model[] = {
 0x1c, 0x00, 0x00, 0x00, 0x54, 0x46, 0x4c, 0x33, 0x14, 0x00, 0x20, 0x00,
  0x1c, 0x00, 0x18, 0x00, 0x14, 0x00, 0x10, 0x00, 0x0c, 0x00, 0x00, 0x00,
  0x08, 0x00, 0x04, 0x00, 0x14, 0x00, 0x00, 0x00, 0x1c, 0x00, 0x00, 0x00,
  0x98, 0x00, 0x00, 0x00, 0xf0, 0x00, 0x00, 0x00, 0x14, 0x07, 0x00, 0x00,
  0x24, 0x07, 0x00, 0x00, 0x0c, 0x0c, 0x00, 0x00, 0x03, 0x00, 0x00, 0x00,
  0x01, 0x00, 0x00, 0x00, 0x10, 0x00, 0x00, 0x00, 0x00, 0x00, 0x0a, 0x00,
  0x10, 0x00, 0x0c, 0x00, 0x08, 0x00, 0x04, 0x00, 0x0a, 0x00, 0x00, 0x00,
  0x0c, 0x00, 0x00, 0x00, 0x1c, 0x00, 0x00, 0x00, 0x3c, 0x00, 0x00, 0x00,
  0x0f, 0x00, 0x00, 0x00, 0x73, 0x65, 0x72, 0x76, 0x69, 0x6e, 0x67, 0x5f,
  0x64, 0x65, 0x66, 0x61, 0x75, 0x6c, 0x74, 0x00, 0x01, 0x00, 0x00, 0x00,
  0x04, 0x00, 0x00, 0x00, 0x90, 0xff, 0xff, 0xff, 0x09, 0x00, 0x00, 0x00,
  0x04, 0x00, 0x00, 0x00, 0x08, 0x00, 0x00, 0x00, 0x6f, 0x75, 0x74, 0x70,
  0x75, 0x74, 0x5f, 0x30, 0x00, 0x00, 0x00, 0x00, 0x01, 0x00, 0x00, 0x00,
  0x04, 0x00, 0x00, 0x00, 0xba, 0xf9, 0xff, 0xff, 0x04, 0x00, 0x00, 0x00,
  0x0c, 0x00, 0x00, 0x00, 0x6b, 0x65, 0x72, 0x61, 0x73, 0x5f, 0x74, 0x65,
  0x6e, 0x73, 0x6f, 0x72, 0x00, 0x00, 0x00, 0x00, 0x02, 0x00, 0x00, 0x00,
  0x34, 0x00, 0x00, 0x00, 0x04, 0x00, 0x00, 0x00, 0xdc, 0xff, 0xff, 0xff,
  0x0c, 0x00, 0x00, 0x00, 0x04, 0x00, 0x00, 0x00, 0x13, 0x00, 0x00, 0x00,
  0x43, 0x4f, 0x4e, 0x56, 0x45, 0x52, 0x53, 0x49, 0x4f, 0x4e, 0x5f, 0x4d,
  0x45, 0x54, 0x41, 0x44, 0x41, 0x54, 0x41, 0x00, 0x08, 0x00, 0x0c, 0x00,
  0x08, 0x00, 0x04, 0x00, 0x08, 0x00, 0x00, 0x00, 0x0b, 0x00, 0x00, 0x00,
  0x04, 0x00, 0x00, 0x00, 0x13, 0x00, 0x00, 0x00, 0x6d, 0x69, 0x6e, 0x5f,
  0x72, 0x75, 0x6e, 0x74, 0x69, 0x6d, 0x65, 0x5f, 0x76, 0x65, 0x72, 0x73,
  0x69, 0x6f, 0x6e, 0x00, 0x0d, 0x00, 0x00, 0x00, 0x20, 0x06, 0x00, 0x00,
  0x18, 0x06, 0x00, 0x00, 0xc8, 0x05, 0x00, 0x00, 0xb0, 0x01, 0x00, 0x00,
  0x9c, 0x01, 0x00, 0x00, 0x4c, 0x01, 0x00, 0x00, 0xfc, 0x00, 0x00, 0x00,
  0xac, 0x00, 0x00, 0x00, 0xa4, 0x00, 0x00, 0x00, 0x9c, 0x00, 0x00, 0x00,
  0x94, 0x00, 0x00, 0x00, 0x74, 0x00, 0x00, 0x00, 0x04, 0x00, 0x00, 0x00,
  0x6a, 0xfa, 0xff, 0xff, 0x04, 0x00, 0x00, 0x00, 0x60, 0x00, 0x00, 0x00,
  0x0c, 0x00, 0x00, 0x00, 0x08, 0x00, 0x0e, 0x00, 0x08, 0x00, 0x04, 0x00,
  0x08, 0x00, 0x00, 0x00, 0x10, 0x00, 0x00, 0x00, 0x28, 0x00, 0x00, 0x00,
  0x00, 0x00, 0x06, 0x00, 0x08, 0x00, 0x04, 0x00, 0x06, 0x00, 0x00, 0x00,
  0x04, 0x00, 0x00, 0x00, 0x01, 0x00, 0x00, 0x00, 0xea, 0x03, 0x00, 0x00,
  0x0c, 0x00, 0x18, 0x00, 0x14, 0x00, 0x10, 0x00, 0x0c, 0x00, 0x04, 0x00,
  0x0c, 0x00, 0x00, 0x00, 0xec, 0xb7, 0xa8, 0x9a, 0xd0, 0xf4, 0x0a, 0xe3,
  0x02, 0x00, 0x00, 0x00, 0x02, 0x00, 0x00, 0x00, 0x04, 0x00, 0x00, 0x00,
  0x06, 0x00, 0x00, 0x00, 0x32, 0x2e, 0x31, 0x39, 0x2e, 0x30, 0x00, 0x00,
  0xd6, 0xfa, 0xff, 0xff, 0x04, 0x00, 0x00, 0x00, 0x10, 0x00, 0x00, 0x00,
  0x31, 0x2e, 0x35, 0x2e, 0x30, 0x00, 0x00, 0x00, 0x00, 0x00, 0x00, 0x00,
  0x00, 0x00, 0x00, 0x00, 0xd0, 0xf5, 0xff, 0xff, 0xd4, 0xf5, 0xff, 0xff,
  0xd8, 0xf5, 0xff, 0xff, 0xfe, 0xfa, 0xff, 0xff, 0x04, 0x00, 0x00, 0x00,
  0x40, 0x00, 0x00, 0x00, 0x4f, 0x39, 0xa2, 0x3e, 0x54, 0x8c, 0x06, 0xbe,
  0xdd, 0xe9, 0xf8, 0xbe, 0x74, 0xd9, 0x10, 0x3f, 0xc2, 0x99, 0xc8, 0x3e,
  0xd4, 0x3e, 0x92, 0x3e, 0xa5, 0xaf, 0xa2, 0x3e, 0x1a, 0x3a, 0x40, 0xbe,
  0xc0, 0x13, 0x64, 0xbd, 0x9a, 0x6f, 0xaa, 0x3e, 0x27, 0x9e, 0xc1, 0x3e,
  0x72, 0x66, 0x20, 0x3e, 0xe1, 0x96, 0x68, 0x3e, 0x62, 0x3a, 0x18, 0x3f,
  0xf5, 0xbe, 0x01, 0x3f, 0x95, 0x0b, 0x49, 0x3e, 0x4a, 0xfb, 0xff, 0xff,
  0x04, 0x00, 0x00, 0x00, 0x40, 0x00, 0x00, 0x00, 0xfc, 0x18, 0x60, 0xbf,
  0x00, 0x00, 0x00, 0x00, 0x00, 0x00, 0x00, 0x00, 0xae, 0xa3, 0xf9, 0x3d,
  0xed, 0x40, 0x9c, 0xbe, 0xce, 0xf5, 0xc2, 0xbe, 0xb4, 0x78, 0xb7, 0x3e,
  0x00, 0x00, 0x00, 0x00, 0x00, 0x00, 0x00, 0x00, 0xe5, 0x89, 0x00, 0x3f,
  0xc6, 0x9e, 0xd5, 0xbe, 0x26, 0x7e, 0x95, 0xbe, 0x9b, 0x2c, 0xee, 0xbe,
  0x41, 0x41, 0x41, 0x3d, 0x77, 0x68, 0x4d, 0x3e, 0x02, 0x5e, 0xe6, 0xbe,
  0x96, 0xfb, 0xff, 0xff, 0x04, 0x00, 0x00, 0x00, 0x40, 0x00, 0x00, 0x00,
  0x1f, 0x8e, 0x9c, 0x3d, 0xfd, 0xcf, 0x54, 0x3d, 0xfd, 0xce, 0x89, 0xbc,
  0xf5, 0x4e, 0xbc, 0xbd, 0xbf, 0x1d, 0x70, 0xbe, 0x00, 0x00, 0x00, 0x00,
  0x00, 0x00, 0x00, 0x00, 0x45, 0xf4, 0x07, 0xbf, 0x8c, 0xb3, 0xef, 0x3e,
  0x43, 0xa2, 0x81, 0xbe, 0x44, 0x9b, 0xd5, 0x3e, 0xf4, 0xd3, 0x60, 0xbe,
  0xf2, 0x4d, 0x06, 0xbc, 0x18, 0x78, 0x78, 0xbc, 0x00, 0x00, 0x00, 0x00,
  0xb8, 0xc8, 0xb6, 0x3d, 0xe2, 0xfb, 0xff, 0xff, 0x04, 0x00, 0x00, 0x00,
  0x04, 0x00, 0x00, 0x00, 0x04, 0x44, 0x85, 0xbe, 0xf2, 0xfb, 0xff, 0xff,
  0x04, 0x00, 0x00, 0x00, 0x00, 0x04, 0x00, 0x00, 0x80, 0x0c, 0x63, 0xbe,
  0xf8, 0x27, 0xfc, 0xbd, 0xf9, 0x4a, 0x9d, 0xbe, 0xf9, 0xff, 0xe4, 0x3e,
  0x0c, 0x6a, 0xc5, 0x3e, 0x6e, 0x0a, 0xc6, 0x3e, 0xd5, 0xfd, 0x6c, 0xbe,
  0x29, 0x28, 0xa8, 0xbe, 0x90, 0x3c, 0x25, 0x3d, 0x16, 0xb6, 0x55, 0xbe,
  0xc8, 0xb3, 0xa4, 0x3e, 0xf3, 0xe2, 0x9b, 0x3e, 0xda, 0x96, 0x6b, 0xbd,
  0x0f, 0x31, 0xdb, 0xbc, 0x48, 0xa2, 0x94, 0xbe, 0x75, 0x3c, 0xbd, 0xbe,
  0x8e, 0x5b, 0xc7, 0xbc, 0xe0, 0x16, 0xf4, 0xbd, 0x24, 0x91, 0x64, 0xbe,
  0x44, 0x36, 0x24, 0x3e, 0x37, 0xb1, 0x20, 0xbc, 0xc2, 0x1b, 0xca, 0x3d,
  0x91, 0x61, 0xd7, 0x3e, 0x10, 0x0d, 0x95, 0xbc, 0xa2, 0xde, 0x7d, 0xbe,
  0x67, 0x94, 0xb3, 0xbe, 0x78, 0xe8, 0x84, 0x3e, 0x70, 0xa5, 0xca, 0xbc,
  0x34, 0xb9, 0x21, 0xbd, 0x19, 0x5e, 0xc2, 0xbc, 0x0d, 0x19, 0x71, 0x3e,
  0x76, 0xb1, 0x0a, 0x3e, 0x4a, 0x92, 0x25, 0xbf, 0x7e, 0x32, 0x0d, 0xbe,
  0x40, 0xb3, 0x94, 0x3c, 0xb5, 0x62, 0xd2, 0xbd, 0xaa, 0x95, 0x06, 0xbb,
  0xab, 0x57, 0xa5, 0x3e, 0xb0, 0x02, 0xf6, 0xbd, 0x40, 0x64, 0xa7, 0xbc,
  0xaa, 0xcd, 0x67, 0x3e, 0xe8, 0x44, 0x89, 0x3e, 0x91, 0xd0, 0xd4, 0x3d,
  0x37, 0x5f, 0x52, 0x3c, 0x93, 0x5b, 0x93, 0xbe, 0xcd, 0x6f, 0x9c, 0x3e,
  0x7f, 0xd4, 0xc6, 0x3d, 0x1e, 0x0e, 0xec, 0x3c, 0x77, 0x3f, 0x43, 0xbe,
  0x8c, 0x80, 0xa1, 0xbd, 0x20, 0xf2, 0x80, 0xbe, 0x79, 0xe0, 0x59, 0x3e,
  0x3a, 0x32, 0x42, 0xbf, 0x18, 0xfd, 0x1c, 0xbf, 0x1d, 0x9e, 0xd6, 0x3d,
  0x1e, 0x0c, 0x34, 0x3e, 0x0c, 0x5c, 0x97, 0xbe, 0x18, 0x47, 0x25, 0xbc,
  0x5d, 0xed, 0x27, 0xbf, 0x2d, 0x6b, 0xac, 0x3e, 0x8c, 0x7f, 0xc4, 0xbe,
  0x12, 0x04, 0x8a, 0xbe, 0x29, 0xa4, 0xae, 0x3e, 0x77, 0x18, 0xd7, 0xbe,
  0xe8, 0x36, 0x0d, 0x3f, 0x12, 0x90, 0xc7, 0xbe, 0x88, 0x59, 0x9a, 0xbe,
  0x30, 0x22, 0x55, 0xbb, 0x3a, 0x51, 0xb7, 0xbe, 0x53, 0x3a, 0x80, 0x3e,
  0x69, 0x63, 0x78, 0xbe, 0xe4, 0xad, 0xc0, 0x3d, 0x78, 0x66, 0x0d, 0x3d,
  0xfe, 0x16, 0x62, 0x3e, 0xb8, 0xe9, 0x40, 0x3e, 0x51, 0x7d, 0x55, 0xbe,
  0x33, 0xe0, 0x04, 0x3e, 0x85, 0xb0, 0xd0, 0x3d, 0xf4, 0xe1, 0x58, 0x3e,
  0x05, 0xd1, 0x76, 0xbe, 0x7e, 0x93, 0xb7, 0xbe, 0xd6, 0x6e, 0x66, 0xbe,
  0x67, 0x39, 0x7e, 0xbe, 0x08, 0x38, 0xb2, 0xbe, 0x68, 0x4b, 0xb3, 0xbd,
  0xb6, 0x2f, 0x6e, 0xbe, 0xbb, 0xe3, 0x93, 0x3e, 0x45, 0x7d, 0x65, 0xbe,
  0xfa, 0xbf, 0x6f, 0xbe, 0xa0, 0x4a, 0x3b, 0xbc, 0xa7, 0xed, 0x8d, 0x3e,
  0x17, 0xa2, 0x80, 0x3e, 0xe5, 0xd2, 0x8a, 0xbe, 0xb8, 0x02, 0x80, 0x3d,
  0xa7, 0xd5, 0xa6, 0xbe, 0x64, 0xb0, 0x90, 0x3d, 0x0b, 0xcc, 0xb8, 0xbe,
  0x3c, 0x71, 0xa1, 0x3d, 0x24, 0x38, 0xbf, 0xbd, 0x14, 0x6f, 0xd6, 0xbd,
  0xcd, 0xd3, 0xa9, 0xbe, 0xaa, 0x74, 0x7f, 0x3e, 0xe2, 0x7a, 0x11, 0xbe,
  0xda, 0x08, 0x74, 0xbe, 0xa7, 0x32, 0xc8, 0x3e, 0xa4, 0x41, 0xb8, 0x3d,
  0xc3, 0xc9, 0x90, 0x3e, 0xc3, 0x3c, 0x43, 0xbe, 0x05, 0x79, 0xae, 0x3e,
  0x00, 0x06, 0xe1, 0xbd, 0xfc, 0x7f, 0xb1, 0xbe, 0x10, 0x31, 0xa3, 0xbe,
  0x84, 0x7b, 0x9b, 0x3e, 0x59, 0xe9, 0x9a, 0x3e, 0xe4, 0x03, 0xfb, 0x3d,
  0x86, 0xa9, 0xac, 0xbe, 0xc6, 0x1e, 0x83, 0x3e, 0x21, 0xa1, 0x81, 0x3e,
  0xd9, 0x4e, 0x71, 0xbe, 0xa1, 0xf4, 0xb4, 0x3e, 0x70, 0xc4, 0x97, 0xbd,
  0x06, 0xaa, 0xe3, 0xbe, 0xd8, 0x5e, 0x35, 0x3e, 0xd2, 0x4a, 0xb5, 0x3d,
  0x0d, 0x6e, 0x14, 0x3f, 0xb0, 0x55, 0xe1, 0x3d, 0x4f, 0x8e, 0xa6, 0x3e,
  0xe5, 0xd9, 0xb2, 0x3e, 0x89, 0x2c, 0xa1, 0xbf, 0x91, 0x62, 0x9f, 0x3e,
  0xfd, 0x8d, 0xb5, 0x3e, 0x12, 0x95, 0x39, 0x3c, 0x1f, 0x7f, 0x53, 0xbe,
  0x6b, 0xb0, 0x1e, 0xbf, 0x5a, 0x33, 0x3e, 0x3e, 0x17, 0x60, 0xca, 0x3e,
  0xda, 0xd9, 0x4b, 0x3e, 0x72, 0xea, 0x18, 0x3e, 0x50, 0xfd, 0x13, 0xbf,
  0xfa, 0xda, 0x9a, 0xbf, 0x77, 0xac, 0x5a, 0xbf, 0x71, 0xca, 0x00, 0x3f,
  0x03, 0x6b, 0xaf, 0x3e, 0xbe, 0x56, 0x47, 0xbf, 0xb5, 0x4d, 0x91, 0x3d,
  0x93, 0xa7, 0xb5, 0x3e, 0x2b, 0x0c, 0xa4, 0xbe, 0xde, 0x6d, 0xb2, 0xbd,
  0xa9, 0x5a, 0xa0, 0x3e, 0xdd, 0xa6, 0xe1, 0x3e, 0x4f, 0x2f, 0x1c, 0xbe,
  0x38, 0xb4, 0xc0, 0xbd, 0x6b, 0x5c, 0xb8, 0x3e, 0xcd, 0x09, 0x59, 0x3d,
  0x65, 0x75, 0x3d, 0x3e, 0xbc, 0x07, 0xa0, 0x3e, 0x4c, 0xd3, 0x5f, 0x3e,
  0x4a, 0x89, 0xca, 0x3e, 0xb9, 0x51, 0xbf, 0xbe, 0xb8, 0x98, 0x01, 0xbe,
  0x85, 0x16, 0x42, 0xbe, 0xda, 0x35, 0x55, 0x3e, 0xcc, 0xa1, 0x2b, 0xbe,
  0x60, 0x60, 0x04, 0xbf, 0xce, 0xad, 0x92, 0xbe, 0x59, 0xfa, 0xde, 0xbe,
  0x65, 0x76, 0x99, 0xbe, 0xac, 0xaf, 0x05, 0xbe, 0x4c, 0xab, 0xc1, 0xbd,
  0xdd, 0xde, 0x18, 0x3f, 0xda, 0xd8, 0x83, 0x3e, 0xcf, 0x28, 0xd4, 0xbe,
  0x7f, 0x36, 0x51, 0x3e, 0x6b, 0x0e, 0x75, 0xbe, 0xd1, 0x54, 0x06, 0x3d,
  0x6b, 0x93, 0xb4, 0x3e, 0x3c, 0x3b, 0xdb, 0x3e, 0xe6, 0x08, 0xc9, 0xbe,
  0xfa, 0x37, 0xb2, 0xbe, 0xb4, 0xeb, 0xd3, 0xbd, 0xff, 0x5a, 0x04, 0x3e,
  0x0b, 0x8f, 0xac, 0xbd, 0x86, 0x69, 0xb7, 0x3e, 0x5e, 0xeb, 0x1c, 0x3e,
  0x30, 0x97, 0xd7, 0xbe, 0x65, 0x7e, 0x0e, 0xbe, 0xcb, 0xd4, 0xef, 0xbd,
  0x36, 0x4a, 0x7c, 0xbe, 0xaf, 0xc7, 0x31, 0xbe, 0x46, 0xbe, 0xc7, 0x3e,
  0x21, 0x6e, 0x61, 0xbe, 0x9c, 0x98, 0xef, 0x3d, 0x4d, 0x3d, 0x8d, 0xbe,
  0x16, 0x74, 0x2e, 0x3e, 0x94, 0xc4, 0xd5, 0xbd, 0x8e, 0xec, 0x1c, 0x3d,
  0x98, 0x74, 0x26, 0xbe, 0x30, 0xf6, 0x51, 0xbe, 0xf7, 0x33, 0x1f, 0xbd,
  0x84, 0x55, 0xa5, 0x3d, 0xf5, 0xb2, 0x8c, 0xbe, 0xf9, 0x55, 0x99, 0x3e,
  0x17, 0x39, 0x2d, 0xbe, 0x9f, 0x28, 0x9c, 0xbe, 0xcc, 0x7d, 0x1e, 0xbc,
  0x66, 0xac, 0x81, 0x3e, 0xea, 0xa1, 0x4e, 0x3d, 0x6d, 0x78, 0x63, 0x3d,
  0x10, 0x42, 0xd3, 0xbe, 0x7c, 0x27, 0x86, 0xbe, 0xa9, 0x1f, 0xb2, 0xbe,
  0x53, 0x1a, 0x2b, 0x3e, 0x1a, 0xd2, 0x21, 0x3e, 0x08, 0x5c, 0x51, 0xbe,
  0xa2, 0x70, 0x02, 0x3e, 0x07, 0xdb, 0xaf, 0x3e, 0x2a, 0xcc, 0x06, 0x3e,
  0x59, 0xe2, 0xe3, 0xbe, 0x75, 0x78, 0x28, 0x3e, 0x7a, 0x49, 0x18, 0xbe,
  0xde, 0x1c, 0xbc, 0xbe, 0xc7, 0xd4, 0xc6, 0x3e, 0x30, 0xf1, 0xbf, 0xbe,
  0x37, 0xea, 0xa2, 0xbe, 0x68, 0xc7, 0xea, 0xbd, 0xbb, 0x70, 0xdc, 0xbe,
  0xd4, 0x35, 0x19, 0xbe, 0x34, 0xe4, 0x99, 0x3d, 0x46, 0x18, 0x5e, 0xbe,
  0x2e, 0x71, 0x67, 0xbe, 0x40, 0xff, 0x27, 0xbd, 0xcc, 0x15, 0xbd, 0x3d,
  0x6e, 0x1d, 0x55, 0x3e, 0xd3, 0x42, 0x8d, 0xbe, 0xde, 0x13, 0x54, 0x3e,
  0x80, 0x59, 0x73, 0x3c, 0x31, 0xa8, 0x80, 0x3e, 0x06, 0xca, 0xbf, 0xbe,
  0xaf, 0x9d, 0x5c, 0xbe, 0x3c, 0x04, 0x04, 0xbe, 0x03, 0x19, 0x11, 0xbf,
  0xda, 0x99, 0xc7, 0xbe, 0x7d, 0x47, 0xc7, 0x3e, 0x87, 0x10, 0x18, 0xbc,
  0xed, 0x8a, 0xc6, 0xbd, 0xbb, 0xdb, 0x83, 0x3e, 0x45, 0xb3, 0xd8, 0x3e,
  0x62, 0x89, 0x66, 0xbe, 0xd5, 0x9e, 0xc5, 0x3e, 0xf1, 0x8c, 0x74, 0x3e,
  0x19, 0xa0, 0x96, 0xbd, 0x34, 0x9c, 0xf0, 0xbe, 0x0f, 0x34, 0xa8, 0x3d,
  0xd4, 0xba, 0x94, 0xbc, 0x08, 0x94, 0xf4, 0x3d, 0xa7, 0x5a, 0x13, 0xbe,
  0x00, 0x00, 0x06, 0x00, 0x08, 0x00, 0x04, 0x00, 0x06, 0x00, 0x00, 0x00,
  0x04, 0x00, 0x00, 0x00, 0x40, 0x00, 0x00, 0x00, 0xde, 0xb3, 0xe2, 0xbe,
  0x26, 0x51, 0x35, 0xbe, 0xf8, 0x92, 0x29, 0xbe, 0xfb, 0x99, 0x2f, 0x3f,
  0x92, 0x4d, 0xba, 0x3e, 0xbc, 0xec, 0x07, 0xbe, 0xe2, 0xcb, 0x9d, 0x3e,
  0x9a, 0x5a, 0x98, 0x3f, 0x4b, 0x0f, 0xaa, 0x3f, 0x9b, 0x30, 0x8b, 0x3e,
  0x76, 0xfe, 0x44, 0xbf, 0xf0, 0xbd, 0xd0, 0x3e, 0xef, 0x6b, 0x0f, 0xbe,
  0xa3, 0x2d, 0xcc, 0xbd, 0x22, 0x01, 0x05, 0x3f, 0xbc, 0x44, 0xfc, 0xbe,
  0x30, 0xfb, 0xff, 0xff, 0x34, 0xfb, 0xff, 0xff, 0x0f, 0x00, 0x00, 0x00,
  0x4d, 0x4c, 0x49, 0x52, 0x20, 0x43, 0x6f, 0x6e, 0x76, 0x65, 0x72, 0x74,
  0x65, 0x64, 0x2e, 0x00, 0x01, 0x00, 0x00, 0x00, 0x14, 0x00, 0x00, 0x00,
  0x00, 0x00, 0x0e, 0x00, 0x18, 0x00, 0x14, 0x00, 0x10, 0x00, 0x0c, 0x00,
  0x08, 0x00, 0x04, 0x00, 0x0e, 0x00, 0x00, 0x00, 0x14, 0x00, 0x00, 0x00,
  0x1c, 0x00, 0x00, 0x00, 0xd8, 0x00, 0x00, 0x00, 0xdc, 0x00, 0x00, 0x00,
  0xe0, 0x00, 0x00, 0x00, 0x04, 0x00, 0x00, 0x00, 0x6d, 0x61, 0x69, 0x6e,
  0x00, 0x00, 0x00, 0x00, 0x03, 0x00, 0x00, 0x00, 0x80, 0x00, 0x00, 0x00,
  0x38, 0x00, 0x00, 0x00, 0x04, 0x00, 0x00, 0x00, 0x9a, 0xff, 0xff, 0xff,
  0x10, 0x00, 0x00, 0x00, 0x00, 0x00, 0x00, 0x08, 0x0c, 0x00, 0x00, 0x00,
  0x10, 0x00, 0x00, 0x00, 0xac, 0xfb, 0xff, 0xff, 0x01, 0x00, 0x00, 0x00,
  0x09, 0x00, 0x00, 0x00, 0x03, 0x00, 0x00, 0x00, 0x08, 0x00, 0x00, 0x00,
  0x01, 0x00, 0x00, 0x00, 0x03, 0x00, 0x00, 0x00, 0xca, 0xff, 0xff, 0xff,
  0x10, 0x00, 0x00, 0x00, 0x00, 0x00, 0x00, 0x08, 0x10, 0x00, 0x00, 0x00,
  0x14, 0x00, 0x00, 0x00, 0xba, 0xff, 0xff, 0xff, 0x00, 0x00, 0x00, 0x01,
  0x01, 0x00, 0x00, 0x00, 0x08, 0x00, 0x00, 0x00, 0x03, 0x00, 0x00, 0x00,
  0x07, 0x00, 0x00, 0x00, 0x02, 0x00, 0x00, 0x00, 0x04, 0x00, 0x00, 0x00,
  0x00, 0x00, 0x0e, 0x00, 0x16, 0x00, 0x00, 0x00, 0x10, 0x00, 0x0c, 0x00,
  0x0b, 0x00, 0x04, 0x00, 0x0e, 0x00, 0x00, 0x00, 0x18, 0x00, 0x00, 0x00,
  0x00, 0x00, 0x00, 0x08, 0x18, 0x00, 0x00, 0x00, 0x1c, 0x00, 0x00, 0x00,
  0x00, 0x00, 0x06, 0x00, 0x08, 0x00, 0x07, 0x00, 0x06, 0x00, 0x00, 0x00,
  0x00, 0x00, 0x00, 0x01, 0x01, 0x00, 0x00, 0x00, 0x07, 0x00, 0x00, 0x00,
  0x03, 0x00, 0x00, 0x00, 0x00, 0x00, 0x00, 0x00, 0x06, 0x00, 0x00, 0x00,
  0x05, 0x00, 0x00, 0x00, 0x01, 0x00, 0x00, 0x00, 0x09, 0x00, 0x00, 0x00,
  0x01, 0x00, 0x00, 0x00, 0x00, 0x00, 0x00, 0x00, 0x0a, 0x00, 0x00, 0x00,
  0x7c, 0x03, 0x00, 0x00, 0x24, 0x03, 0x00, 0x00, 0xcc, 0x02, 0x00, 0x00,
  0x90, 0x02, 0x00, 0x00, 0x34, 0x02, 0x00, 0x00, 0xdc, 0x01, 0x00, 0x00,
  0x90, 0x01, 0x00, 0x00, 0xfc, 0x00, 0x00, 0x00, 0x60, 0x00, 0x00, 0x00,
  0x04, 0x00, 0x00, 0x00, 0xc2, 0xfc, 0xff, 0xff, 0x00, 0x00, 0x00, 0x01,
  0x14, 0x00, 0x00, 0x00, 0x1c, 0x00, 0x00, 0x00, 0x1c, 0x00, 0x00, 0x00,
  0x0a, 0x00, 0x00, 0x00, 0x34, 0x00, 0x00, 0x00, 0x02, 0x00, 0x00, 0x00,
  0xff, 0xff, 0xff, 0xff, 0x01, 0x00, 0x00, 0x00, 0xac, 0xfc, 0xff, 0xff,
  0x1b, 0x00, 0x00, 0x00, 0x53, 0x74, 0x61, 0x74, 0x65, 0x66, 0x75, 0x6c,
  0x50, 0x61, 0x72, 0x74, 0x69, 0x74, 0x69, 0x6f, 0x6e, 0x65, 0x64, 0x43,
  0x61, 0x6c, 0x6c, 0x5f, 0x31, 0x3a, 0x30, 0x00, 0x02, 0x00, 0x00, 0x00,
  0x01, 0x00, 0x00, 0x00, 0x01, 0x00, 0x00, 0x00, 0x1a, 0xfd, 0xff, 0xff,
  0x00, 0x00, 0x00, 0x01, 0x14, 0x00, 0x00, 0x00, 0x1c, 0x00, 0x00, 0x00,
  0x1c, 0x00, 0x00, 0x00, 0x09, 0x00, 0x00, 0x00, 0x74, 0x00, 0x00, 0x00,
  0x02, 0x00, 0x00, 0x00, 0xff, 0xff, 0xff, 0xff, 0x10, 0x00, 0x00, 0x00,
  0x04, 0xfd, 0xff, 0xff, 0x58, 0x00, 0x00, 0x00, 0x73, 0x65, 0x71, 0x75,
  0x65, 0x6e, 0x74, 0x69, 0x61, 0x6c, 0x5f, 0x31, 0x2f, 0x64, 0x65, 0x6e,
  0x73, 0x65, 0x5f, 0x31, 0x5f, 0x32, 0x2f, 0x4d, 0x61, 0x74, 0x4d, 0x75,
  0x6c, 0x3b, 0x73, 0x65, 0x71, 0x75, 0x65, 0x6e, 0x74, 0x69, 0x61, 0x6c,
  0x5f, 0x31, 0x2f, 0x64, 0x65, 0x6e, 0x73, 0x65, 0x5f, 0x31, 0x5f, 0x32,
  0x2f, 0x52, 0x65, 0x6c, 0x75, 0x3b, 0x73, 0x65, 0x71, 0x75, 0x65, 0x6e,
  0x74, 0x69, 0x61, 0x6c, 0x5f, 0x31, 0x2f, 0x64, 0x65, 0x6e, 0x73, 0x65,
  0x5f, 0x31, 0x5f, 0x32, 0x2f, 0x42, 0x69, 0x61, 0x73, 0x41, 0x64, 0x64,
  0x00, 0x00, 0x00, 0x00, 0x02, 0x00, 0x00, 0x00, 0x01, 0x00, 0x00, 0x00,
  0x10, 0x00, 0x00, 0x00, 0xb2, 0xfd, 0xff, 0xff, 0x00, 0x00, 0x00, 0x01,
  0x14, 0x00, 0x00, 0x00, 0x1c, 0x00, 0x00, 0x00, 0x1c, 0x00, 0x00, 0x00,
  0x08, 0x00, 0x00, 0x00, 0x6c, 0x00, 0x00, 0x00, 0x02, 0x00, 0x00, 0x00,
  0xff, 0xff, 0xff, 0xff, 0x10, 0x00, 0x00, 0x00, 0x9c, 0xfd, 0xff, 0xff,
  0x52, 0x00, 0x00, 0x00, 0x73, 0x65, 0x71, 0x75, 0x65, 0x6e, 0x74, 0x69,
  0x61, 0x6c, 0x5f, 0x31, 0x2f, 0x64, 0x65, 0x6e, 0x73, 0x65, 0x5f, 0x31,
  0x2f, 0x4d, 0x61, 0x74, 0x4d, 0x75, 0x6c, 0x3b, 0x73, 0x65, 0x71, 0x75,
  0x65, 0x6e, 0x74, 0x69, 0x61, 0x6c, 0x5f, 0x31, 0x2f, 0x64, 0x65, 0x6e,
  0x73, 0x65, 0x5f, 0x31, 0x2f, 0x52, 0x65, 0x6c, 0x75, 0x3b, 0x73, 0x65,
  0x71, 0x75, 0x65, 0x6e, 0x74, 0x69, 0x61, 0x6c, 0x5f, 0x31, 0x2f, 0x64,
  0x65, 0x6e, 0x73, 0x65, 0x5f, 0x31, 0x2f, 0x42, 0x69, 0x61, 0x73, 0x41,
  0x64, 0x64, 0x00, 0x00, 0x02, 0x00, 0x00, 0x00, 0x01, 0x00, 0x00, 0x00,
  0x10, 0x00, 0x00, 0x00, 0x96, 0xfe, 0xff, 0xff, 0x00, 0x00, 0x00, 0x01,
  0x10, 0x00, 0x00, 0x00, 0x10, 0x00, 0x00, 0x00, 0x07, 0x00, 0x00, 0x00,
  0x28, 0x00, 0x00, 0x00, 0x1c, 0xfe, 0xff, 0xff, 0x1b, 0x00, 0x00, 0x00,
  0x73, 0x65, 0x71, 0x75, 0x65, 0x6e, 0x74, 0x69, 0x61, 0x6c, 0x5f, 0x31,
  0x2f, 0x64, 0x65, 0x6e, 0x73, 0x65, 0x5f, 0x31, 0x2f, 0x4d, 0x61, 0x74,
  0x4d, 0x75, 0x6c, 0x00, 0x02, 0x00, 0x00, 0x00, 0x10, 0x00, 0x00, 0x00,
  0x01, 0x00, 0x00, 0x00, 0xde, 0xfe, 0xff, 0xff, 0x00, 0x00, 0x00, 0x01,
  0x10, 0x00, 0x00, 0x00, 0x10, 0x00, 0x00, 0x00, 0x06, 0x00, 0x00, 0x00,
  0x38, 0x00, 0x00, 0x00, 0x64, 0xfe, 0xff, 0xff, 0x2b, 0x00, 0x00, 0x00,
  0x73, 0x65, 0x71, 0x75, 0x65, 0x6e, 0x74, 0x69, 0x61, 0x6c, 0x5f, 0x31,
  0x2f, 0x64, 0x65, 0x6e, 0x73, 0x65, 0x5f, 0x31, 0x2f, 0x42, 0x69, 0x61,
  0x73, 0x41, 0x64, 0x64, 0x2f, 0x52, 0x65, 0x61, 0x64, 0x56, 0x61, 0x72,
  0x69, 0x61, 0x62, 0x6c, 0x65, 0x4f, 0x70, 0x00, 0x01, 0x00, 0x00, 0x00,
  0x10, 0x00, 0x00, 0x00, 0x32, 0xff, 0xff, 0xff, 0x00, 0x00, 0x00, 0x01,
  0x10, 0x00, 0x00, 0x00, 0x10, 0x00, 0x00, 0x00, 0x05, 0x00, 0x00, 0x00,
  0x3c, 0x00, 0x00, 0x00, 0xb8, 0xfe, 0xff, 0xff, 0x2d, 0x00, 0x00, 0x00,
  0x73, 0x65, 0x71, 0x75, 0x65, 0x6e, 0x74, 0x69, 0x61, 0x6c, 0x5f, 0x31,
  0x2f, 0x64, 0x65, 0x6e, 0x73, 0x65, 0x5f, 0x31, 0x5f, 0x32, 0x2f, 0x42,
  0x69, 0x61, 0x73, 0x41, 0x64, 0x64, 0x2f, 0x52, 0x65, 0x61, 0x64, 0x56,
  0x61, 0x72, 0x69, 0x61, 0x62, 0x6c, 0x65, 0x4f, 0x70, 0x00, 0x00, 0x00,
  0x01, 0x00, 0x00, 0x00, 0x10, 0x00, 0x00, 0x00, 0x8a, 0xff, 0xff, 0xff,
  0x00, 0x00, 0x00, 0x01, 0x10, 0x00, 0x00, 0x00, 0x10, 0x00, 0x00, 0x00,
  0x04, 0x00, 0x00, 0x00, 0x1c, 0x00, 0x00, 0x00, 0x10, 0xff, 0xff, 0xff,
  0x0f, 0x00, 0x00, 0x00, 0x61, 0x72, 0x69, 0x74, 0x68, 0x2e, 0x63, 0x6f,
  0x6e, 0x73, 0x74, 0x61, 0x6e, 0x74, 0x32, 0x00, 0x01, 0x00, 0x00, 0x00,
  0x01, 0x00, 0x00, 0x00, 0xc2, 0xff, 0xff, 0xff, 0x00, 0x00, 0x00, 0x01,
  0x10, 0x00, 0x00, 0x00, 0x10, 0x00, 0x00, 0x00, 0x03, 0x00, 0x00, 0x00,
  0x1c, 0x00, 0x00, 0x00, 0x48, 0xff, 0xff, 0xff, 0x0f, 0x00, 0x00, 0x00,
  0x61, 0x72, 0x69, 0x74, 0x68, 0x2e, 0x63, 0x6f, 0x6e, 0x73, 0x74, 0x61,
  0x6e, 0x74, 0x31, 0x00, 0x02, 0x00, 0x00, 0x00, 0x10, 0x00, 0x00, 0x00,
  0x10, 0x00, 0x00, 0x00, 0x00, 0x00, 0x16, 0x00, 0x18, 0x00, 0x14, 0x00,
  0x00, 0x00, 0x10, 0x00, 0x0c, 0x00, 0x08, 0x00, 0x00, 0x00, 0x00, 0x00,
  0x00, 0x00, 0x07, 0x00, 0x16, 0x00, 0x00, 0x00, 0x00, 0x00, 0x00, 0x01,
  0x10, 0x00, 0x00, 0x00, 0x10, 0x00, 0x00, 0x00, 0x02, 0x00, 0x00, 0x00,
  0x1c, 0x00, 0x00, 0x00, 0x9c, 0xff, 0xff, 0xff, 0x0e, 0x00, 0x00, 0x00,
  0x61, 0x72, 0x69, 0x74, 0x68, 0x2e, 0x63, 0x6f, 0x6e, 0x73, 0x74, 0x61,
  0x6e, 0x74, 0x00, 0x00, 0x02, 0x00, 0x00, 0x00, 0x01, 0x00, 0x00, 0x00,
  0x10, 0x00, 0x00, 0x00, 0x00, 0x00, 0x16, 0x00, 0x1c, 0x00, 0x18, 0x00,
  0x00, 0x00, 0x14, 0x00, 0x10, 0x00, 0x0c, 0x00, 0x00, 0x00, 0x00, 0x00,
  0x08, 0x00, 0x07, 0x00, 0x16, 0x00, 0x00, 0x00, 0x00, 0x00, 0x00, 0x01,
  0x14, 0x00, 0x00, 0x00, 0x20, 0x00, 0x00, 0x00, 0x20, 0x00, 0x00, 0x00,
  0x01, 0x00, 0x00, 0x00, 0x3c, 0x00, 0x00, 0x00, 0x02, 0x00, 0x00, 0x00,
  0xff, 0xff, 0xff, 0xff, 0x01, 0x00, 0x00, 0x00, 0x04, 0x00, 0x04, 0x00,
  0x04, 0x00, 0x00, 0x00, 0x1e, 0x00, 0x00, 0x00, 0x73, 0x65, 0x72, 0x76,
  0x69, 0x6e, 0x67, 0x5f, 0x64, 0x65, 0x66, 0x61, 0x75, 0x6c, 0x74, 0x5f,
  0x6b, 0x65, 0x72, 0x61, 0x73, 0x5f, 0x74, 0x65, 0x6e, 0x73, 0x6f, 0x72,
  0x3a, 0x30, 0x00, 0x00, 0x02, 0x00, 0x00, 0x00, 0x01, 0x00, 0x00, 0x00,
  0x01, 0x00, 0x00, 0x00, 0x01, 0x00, 0x00, 0x00, 0x10, 0x00, 0x00, 0x00,
  0x0c, 0x00, 0x0c, 0x00, 0x0b, 0x00, 0x00, 0x00, 0x00, 0x00, 0x04, 0x00,
  0x0c, 0x00, 0x00, 0x00, 0x09, 0x00, 0x00, 0x00, 0x00, 0x00, 0x00, 0x09
 
};

#endif //SINE_MODEL_H