#ifndef MIJN_MODEL_H
#define MIJN_MODEL_H

unsigned int mijn_model_len = 12584;
unsigned char mijn_model[] = {
 0x20, 0x00, 0x00, 0x00, 0x54, 0x46, 0x4c, 0x33, 0x00, 0x00, 0x00, 0x00,
  0x14, 0x00, 0x20, 0x00, 0x1c, 0x00, 0x18, 0x00, 0x14, 0x00, 0x10, 0x00,
  0x0c, 0x00, 0x00, 0x00, 0x08, 0x00, 0x04, 0x00, 0x14, 0x00, 0x00, 0x00,
  0x1c, 0x00, 0x00, 0x00, 0x88, 0x00, 0x00, 0x00, 0xe0, 0x00, 0x00, 0x00,
  0x94, 0x22, 0x00, 0x00, 0xa4, 0x22, 0x00, 0x00, 0xa0, 0x30, 0x00, 0x00,
  0x03, 0x00, 0x00, 0x00, 0x01, 0x00, 0x00, 0x00, 0x04, 0x00, 0x00, 0x00,
  0x3a, 0xdc, 0xff, 0xff, 0x0c, 0x00, 0x00, 0x00, 0x1c, 0x00, 0x00, 0x00,
  0x3c, 0x00, 0x00, 0x00, 0x0f, 0x00, 0x00, 0x00, 0x73, 0x65, 0x72, 0x76,
  0x69, 0x6e, 0x67, 0x5f, 0x64, 0x65, 0x66, 0x61, 0x75, 0x6c, 0x74, 0x00,
  0x01, 0x00, 0x00, 0x00, 0x04, 0x00, 0x00, 0x00, 0x94, 0xff, 0xff, 0xff,
  0x0c, 0x00, 0x00, 0x00, 0x04, 0x00, 0x00, 0x00, 0x08, 0x00, 0x00, 0x00,
  0x6f, 0x75, 0x74, 0x70, 0x75, 0x74, 0x5f, 0x30, 0x00, 0x00, 0x00, 0x00,
  0x01, 0x00, 0x00, 0x00, 0x04, 0x00, 0x00, 0x00, 0x3e, 0xdd, 0xff, 0xff,
  0x04, 0x00, 0x00, 0x00, 0x0b, 0x00, 0x00, 0x00, 0x49, 0x6e, 0x70, 0x75,
  0x74, 0x5f, 0x4c, 0x61, 0x79, 0x65, 0x72, 0x00, 0x02, 0x00, 0x00, 0x00,
  0x34, 0x00, 0x00, 0x00, 0x04, 0x00, 0x00, 0x00, 0xdc, 0xff, 0xff, 0xff,
  0x0f, 0x00, 0x00, 0x00, 0x04, 0x00, 0x00, 0x00, 0x13, 0x00, 0x00, 0x00,
  0x43, 0x4f, 0x4e, 0x56, 0x45, 0x52, 0x53, 0x49, 0x4f, 0x4e, 0x5f, 0x4d,
  0x45, 0x54, 0x41, 0x44, 0x41, 0x54, 0x41, 0x00, 0x08, 0x00, 0x0c, 0x00,
  0x08, 0x00, 0x04, 0x00, 0x08, 0x00, 0x00, 0x00, 0x0e, 0x00, 0x00, 0x00,
  0x04, 0x00, 0x00, 0x00, 0x13, 0x00, 0x00, 0x00, 0x6d, 0x69, 0x6e, 0x5f,
  0x72, 0x75, 0x6e, 0x74, 0x69, 0x6d, 0x65, 0x5f, 0x76, 0x65, 0x72, 0x73,
  0x69, 0x6f, 0x6e, 0x00, 0x10, 0x00, 0x00, 0x00, 0xb0, 0x21, 0x00, 0x00,
  0xa8, 0x21, 0x00, 0x00, 0x18, 0x20, 0x00, 0x00, 0x74, 0x1e, 0x00, 0x00,
  0xa4, 0x1d, 0x00, 0x00, 0xd4, 0x1c, 0x00, 0x00, 0xd4, 0x09, 0x00, 0x00,
  0xc4, 0x00, 0x00, 0x00, 0xbc, 0x00, 0x00, 0x00, 0xb4, 0x00, 0x00, 0x00,
  0xac, 0x00, 0x00, 0x00, 0xa4, 0x00, 0x00, 0x00, 0x9c, 0x00, 0x00, 0x00,
  0x94, 0x00, 0x00, 0x00, 0x74, 0x00, 0x00, 0x00, 0x04, 0x00, 0x00, 0x00,
  0xf6, 0xdd, 0xff, 0xff, 0x04, 0x00, 0x00, 0x00, 0x60, 0x00, 0x00, 0x00,
  0x0c, 0x00, 0x00, 0x00, 0x08, 0x00, 0x0e, 0x00, 0x08, 0x00, 0x04, 0x00,
  0x08, 0x00, 0x00, 0x00, 0x10, 0x00, 0x00, 0x00, 0x28, 0x00, 0x00, 0x00,
  0x00, 0x00, 0x06, 0x00, 0x08, 0x00, 0x04, 0x00, 0x06, 0x00, 0x00, 0x00,
  0x04, 0x00, 0x00, 0x00, 0x01, 0x00, 0x00, 0x00, 0xea, 0x03, 0x00, 0x00,
  0x0c, 0x00, 0x18, 0x00, 0x14, 0x00, 0x10, 0x00, 0x0c, 0x00, 0x04, 0x00,
  0x0c, 0x00, 0x00, 0x00, 0x6d, 0x8f, 0xed, 0xd1, 0x7b, 0x9d, 0xb3, 0xc4,
  0x02, 0x00, 0x00, 0x00, 0x02, 0x00, 0x00, 0x00, 0x04, 0x00, 0x00, 0x00,
  0x06, 0x00, 0x00, 0x00, 0x32, 0x2e, 0x31, 0x39, 0x2e, 0x30, 0x00, 0x00,
  0x62, 0xde, 0xff, 0xff, 0x04, 0x00, 0x00, 0x00, 0x10, 0x00, 0x00, 0x00,
  0x32, 0x2e, 0x31, 0x37, 0x2e, 0x30, 0x00, 0x00, 0x00, 0x00, 0x00, 0x00,
  0x00, 0x00, 0x00, 0x00, 0x38, 0xd1, 0xff, 0xff, 0x3c, 0xd1, 0xff, 0xff,
  0x40, 0xd1, 0xff, 0xff, 0x44, 0xd1, 0xff, 0xff, 0x48, 0xd1, 0xff, 0xff,
  0x4c, 0xd1, 0xff, 0xff, 0x96, 0xde, 0xff, 0xff, 0x04, 0x00, 0x00, 0x00,
  0x00, 0x09, 0x00, 0x00, 0xc4, 0xb4, 0xe7, 0x3a, 0xbc, 0x12, 0xd9, 0x22,
  0x37, 0xe3, 0xa5, 0xcf, 0xe6, 0x8d, 0xc0, 0x27, 0x0f, 0x8d, 0xda, 0x1f,
  0xfc, 0xce, 0xb7, 0x9a, 0x1f, 0xb0, 0x4a, 0x81, 0x6b, 0xab, 0xbe, 0xaa,
  0x0d, 0xbd, 0x0c, 0xee, 0x26, 0xdd, 0xa3, 0x57, 0x18, 0xb0, 0x3b, 0xa0,
  0xd8, 0xa8, 0xeb, 0xf4, 0xf6, 0x0b, 0x0d, 0xac, 0xa2, 0x9b, 0xda, 0xe8,
  0x0d, 0xbf, 0xeb, 0xab, 0xf0, 0x9a, 0xdd, 0x37, 0xa3, 0xbe, 0xe4, 0xc1,
  0x0c, 0x03, 0x81, 0xdc, 0xbc, 0xed, 0x2a, 0xf7, 0x2c, 0xd0, 0x05, 0xbe,
  0xa2, 0xd4, 0xfe, 0xde, 0xa1, 0x19, 0x92, 0xff, 0xcb, 0xf7, 0xbb, 0x02,
  0xdd, 0x06, 0xf3, 0xb6, 0xa7, 0xa1, 0x00, 0x4c, 0xbb, 0x0b, 0xb7, 0xed,
  0xe9, 0x3b, 0xbd, 0xfe, 0xde, 0xde, 0xef, 0x1e, 0xc8, 0x09, 0xda, 0x06,
  0x32, 0x88, 0xa0, 0xcf, 0xb5, 0x25, 0x3d, 0x85, 0x59, 0xcf, 0xe6, 0x10,
  0xb4, 0xac, 0xa0, 0x7f, 0xc8, 0x02, 0xab, 0x53, 0xd8, 0xdb, 0xf8, 0xa3,
  0x3e, 0xa1, 0xde, 0xeb, 0xaa, 0xd4, 0x5b, 0xfe, 0xa2, 0xd2, 0xc3, 0x11,
  0xdf, 0xea, 0xff, 0x96, 0x57, 0x8a, 0xa0, 0x35, 0xed, 0xef, 0xdc, 0x34,
  0x3b, 0xc3, 0x94, 0xc1, 0x29, 0x27, 0x2e, 0xeb, 0x7f, 0xd2, 0xf7, 0xf8,
  0xbc, 0xc3, 0xc4, 0x3e, 0xda, 0x41, 0xe4, 0xf0, 0x0f, 0x8f, 0x41, 0x01,
  0xef, 0xe8, 0x92, 0xf6, 0xc2, 0xdf, 0x92, 0xad, 0x00, 0xac, 0xa3, 0x9a,
  0xd9, 0xf0, 0xc7, 0xef, 0xcc, 0x91, 0xf3, 0xd4, 0xb0, 0xd2, 0xcc, 0xad,
  0xc0, 0xe8, 0xf0, 0x82, 0x86, 0xe8, 0xd5, 0xea, 0xa7, 0x81, 0xef, 0xbf,
  0xc3, 0xe4, 0xa8, 0xd1, 0xd1, 0xfa, 0xa2, 0xbd, 0x9e, 0xe2, 0xe8, 0xe7,
  0xd1, 0x97, 0xb7, 0xb6, 0xd4, 0xdc, 0x10, 0x3c, 0xd8, 0xd4, 0xef, 0xc8,
  0xe6, 0x19, 0xa9, 0x0a, 0x05, 0xd1, 0xa0, 0x68, 0xa6, 0xbe, 0xbf, 0xdb,
  0x48, 0xbf, 0xd4, 0x00, 0xf3, 0xd5, 0xe1, 0xfa, 0x7f, 0xa9, 0xa7, 0xbd,
  0xe2, 0xb0, 0xa9, 0x23, 0xd5, 0x48, 0xfe, 0x08, 0x2f, 0xcf, 0xd5, 0xa2,
  0xd7, 0xe3, 0xb0, 0x9a, 0x35, 0x04, 0xb9, 0x0f, 0x21, 0xd2, 0xd6, 0x0d,
  0xda, 0x0e, 0xb6, 0xa2, 0x1f, 0x00, 0xca, 0x2f, 0xe7, 0xae, 0x01, 0xc4,
  0x11, 0x93, 0xa8, 0xe9, 0x81, 0xc7, 0x2c, 0xd6, 0xd1, 0xc4, 0x01, 0xd2,
  0x09, 0x17, 0x9e, 0x08, 0xb7, 0xf8, 0xcd, 0x15, 0xe3, 0xa8, 0x9a, 0x90,
  0x0d, 0x23, 0x15, 0xbf, 0xdf, 0xe2, 0xfa, 0xe7, 0x1e, 0xd5, 0xf0, 0x31,
  0xd5, 0xae, 0xfa, 0xe7, 0x25, 0xcf, 0x81, 0x2b, 0x13, 0x8e, 0xc6, 0xbf,
  0x5b, 0xf4, 0xbd, 0xc9, 0xdb, 0xc3, 0x45, 0xe2, 0x77, 0xdb, 0xf8, 0xb5,
  0x8a, 0x8e, 0xc3, 0x17, 0xc7, 0x24, 0xdb, 0xf6, 0xbe, 0xb7, 0xf7, 0xb7,
  0xf9, 0x20, 0x85, 0xad, 0xf8, 0x97, 0x87, 0x36, 0x27, 0x24, 0x30, 0x0a,
  0xd1, 0x0f, 0xe4, 0xaa, 0xf9, 0xde, 0xc4, 0x18, 0xfa, 0xd6, 0x11, 0xac,
  0x3c, 0xbd, 0xeb, 0xc4, 0x81, 0xbf, 0xdb, 0xc4, 0xf5, 0xb4, 0xc8, 0x94,
  0x15, 0x19, 0xec, 0xce, 0xac, 0xfe, 0xee, 0x18, 0xcd, 0xde, 0xf4, 0xdb,
  0x9f, 0xc6, 0xd2, 0x12, 0xb5, 0xe6, 0x00, 0xe5, 0xca, 0x9b, 0xe7, 0x26,
  0x10, 0x9d, 0xc6, 0x9b, 0x34, 0xaf, 0xd9, 0x23, 0x86, 0xc2, 0xed, 0xc8,
  0xe3, 0xc4, 0xa6, 0xdb, 0xe0, 0x4a, 0xba, 0xb2, 0x1f, 0xfe, 0xb6, 0xfb,
  0xab, 0x89, 0xcc, 0x71, 0x22, 0x16, 0x98, 0x56, 0xfb, 0xbc, 0x21, 0xc0,
  0x53, 0xd2, 0x81, 0xc7, 0xbd, 0xd9, 0x5e, 0xb1, 0xc5, 0xe8, 0xf5, 0xd1,
  0x24, 0xfb, 0xd0, 0xa7, 0x50, 0xd1, 0xe2, 0x17, 0xc3, 0xf0, 0xc6, 0xf0,
  0x25, 0x0e, 0xb1, 0xc6, 0x14, 0xf1, 0xfa, 0xb2, 0x64, 0xcc, 0x14, 0xc6,
  0xb7, 0x94, 0x01, 0x3c, 0x03, 0x43, 0xf4, 0x03, 0x16, 0x8b, 0xf8, 0x05,
  0x34, 0xcc, 0x81, 0xdd, 0xbb, 0xe1, 0x2c, 0xfb, 0xe6, 0xe2, 0x07, 0xf3,
  0x18, 0xee, 0xeb, 0xda, 0x2c, 0x90, 0xea, 0x32, 0xce, 0xf5, 0xb4, 0x1b,
  0x25, 0xeb, 0x81, 0xb2, 0x41, 0x2f, 0x05, 0xdd, 0x4a, 0xdf, 0xec, 0xe8,
  0xd3, 0xb4, 0xd1, 0x5d, 0xc2, 0x08, 0xbc, 0x21, 0x05, 0xbd, 0x0f, 0xc0,
  0x3b, 0xb2, 0x8b, 0x02, 0xc6, 0xbf, 0x43, 0xe6, 0xe3, 0xe0, 0xdd, 0x04,
  0xee, 0xf4, 0xae, 0xcf, 0x3f, 0xc7, 0xb2, 0xfa, 0xfd, 0x02, 0xf4, 0x08,
  0x3f, 0xe3, 0xcd, 0x03, 0x39, 0x26, 0xc1, 0xf7, 0x50, 0xcd, 0xdf, 0xdd,
  0x9f, 0x98, 0x14, 0xf0, 0xe8, 0xdf, 0xed, 0x06, 0xd1, 0xab, 0x2f, 0xab,
  0x0b, 0xf0, 0x81, 0xb7, 0xad, 0x02, 0xfa, 0xce, 0xeb, 0xdb, 0xad, 0xd6,
  0xcc, 0x08, 0x0a, 0x89, 0x12, 0xd7, 0xdb, 0xe9, 0xc7, 0xcd, 0xdb, 0x10,
  0xe6, 0xcc, 0x85, 0xef, 0x09, 0x03, 0x3c, 0xbd, 0x5e, 0xfd, 0x03, 0xbf,
  0x01, 0xbf, 0xc1, 0x02, 0xf8, 0x4a, 0xbb, 0x43, 0x06, 0x81, 0x30, 0x91,
  0x2f, 0xde, 0xc6, 0x0c, 0x88, 0xc4, 0xec, 0xfa, 0x95, 0xe3, 0xd0, 0x05,
  0xe8, 0xd4, 0xe4, 0xca, 0xf7, 0xd5, 0xc1, 0xeb, 0x83, 0xe2, 0xb8, 0x99,
  0xee, 0xc1, 0xc2, 0xa4, 0xb1, 0xb5, 0xf3, 0x9f, 0xbb, 0xc1, 0x90, 0xbe,
  0xc2, 0x9f, 0x98, 0xe8, 0xd3, 0xc8, 0xbd, 0xd8, 0xc3, 0x81, 0x85, 0xc2,
  0x8c, 0xad, 0x89, 0xd3, 0x17, 0x9b, 0xde, 0x1c, 0xbd, 0x10, 0xcb, 0x09,
  0xf6, 0xab, 0x9a, 0xfe, 0xb7, 0x8e, 0xf1, 0x3e, 0x0c, 0xfa, 0x0d, 0xbf,
  0xc9, 0xb5, 0x99, 0x81, 0xb3, 0xb0, 0x0c, 0xf9, 0xe4, 0x82, 0xca, 0xad,
  0xa5, 0xa6, 0x8d, 0x10, 0xd6, 0xc4, 0xe3, 0xfb, 0xf7, 0x88, 0xc7, 0x93,
  0xc4, 0xac, 0xc0, 0xe8, 0x19, 0x95, 0x81, 0x04, 0x15, 0xe0, 0xfe, 0x2c,
  0xef, 0xef, 0xb3, 0x9f, 0xc6, 0x03, 0xad, 0x4d, 0xad, 0x06, 0xc4, 0x0c,
  0x10, 0xc3, 0xc4, 0xec, 0x8d, 0xbf, 0x00, 0xd8, 0x40, 0xd3, 0xde, 0xc7,
  0x05, 0xf9, 0xbe, 0x3d, 0xc4, 0x61, 0xc7, 0xea, 0xf7, 0xd7, 0xc4, 0xa2,
  0xa9, 0xf2, 0x02, 0xd5, 0x08, 0xc2, 0xe2, 0x0e, 0x43, 0x7f, 0x44, 0x01,
  0xf5, 0x6b, 0xe6, 0xf3, 0x4c, 0xd7, 0x4f, 0x35, 0x6c, 0x08, 0x1d, 0x14,
  0x73, 0x19, 0xdb, 0xc9, 0xe0, 0xa5, 0x02, 0x1e, 0xe7, 0x04, 0x20, 0xa8,
  0x5a, 0x4c, 0x1b, 0x4a, 0xc3, 0x57, 0xd9, 0xd5, 0x12, 0x0f, 0xa5, 0xd5,
  0x09, 0xc4, 0x50, 0xf4, 0xff, 0xf2, 0x81, 0xfa, 0x20, 0x05, 0x3c, 0xb9,
  0x04, 0x34, 0x0a, 0x9e, 0xff, 0xea, 0x8b, 0xdc, 0x29, 0xef, 0x8b, 0xc3,
  0x29, 0xd0, 0xcc, 0x96, 0xac, 0x9a, 0x15, 0xed, 0x3f, 0xfb, 0xe1, 0x9d,
  0xd6, 0xdb, 0xe2, 0x07, 0x01, 0xff, 0x94, 0xd7, 0xec, 0xc1, 0xcb, 0xff,
  0x1c, 0xa5, 0x1a, 0xeb, 0x10, 0xd3, 0x81, 0x33, 0x08, 0x19, 0xea, 0x1d,
  0xc4, 0x31, 0xdc, 0xfd, 0xdb, 0xc9, 0xbd, 0xf9, 0xf5, 0xbf, 0x16, 0xc6,
  0x4b, 0xc6, 0xe8, 0xc0, 0x83, 0x98, 0xd6, 0xbe, 0x17, 0xc2, 0xc8, 0xa2,
  0xd5, 0x1e, 0xca, 0xd4, 0xed, 0x2a, 0xd2, 0xcb, 0xc3, 0x1c, 0xb5, 0xbf,
  0xa9, 0x1b, 0x14, 0xfd, 0x06, 0xd6, 0xbc, 0xd2, 0x11, 0xdb, 0x07, 0xdd,
  0x8d, 0xc2, 0x92, 0xfb, 0x9c, 0xaf, 0xc6, 0xf2, 0x9c, 0xb2, 0x94, 0xb3,
  0xf4, 0xcf, 0xda, 0xef, 0x85, 0x81, 0xde, 0xd3, 0xd3, 0xc6, 0xec, 0xb9,
  0xda, 0xfc, 0xcd, 0xaf, 0xed, 0x02, 0xb0, 0xdc, 0xe3, 0x9d, 0xb0, 0x9b,
  0xf5, 0xd3, 0xfb, 0xb0, 0x12, 0xc8, 0xbc, 0x01, 0x33, 0x0d, 0x06, 0xda,
  0xb5, 0x1c, 0xf8, 0xce, 0xab, 0xd5, 0x11, 0x0d, 0xe4, 0xec, 0xed, 0xb7,
  0x04, 0xaa, 0xf4, 0xd3, 0x87, 0x81, 0xf4, 0xfa, 0xd8, 0xc7, 0xe8, 0xe5,
  0x1a, 0xe6, 0xc8, 0xe5, 0xeb, 0xe5, 0x09, 0xdb, 0xbc, 0x0c, 0xc7, 0xc7,
  0xda, 0xed, 0x28, 0x15, 0xa7, 0xe8, 0x2d, 0xeb, 0xf8, 0xd3, 0xbf, 0xc0,
  0xf3, 0x1c, 0xd7, 0x01, 0x1a, 0x9a, 0xe1, 0x1e, 0xf4, 0xf1, 0xc5, 0xf4,
  0x0d, 0xd3, 0x8e, 0x9a, 0x02, 0x1f, 0x37, 0xdc, 0x0e, 0x10, 0x03, 0xfe,
  0xf4, 0xd2, 0xcd, 0x72, 0x01, 0x3f, 0xcd, 0x51, 0xee, 0x81, 0xd4, 0x9f,
  0xe7, 0xea, 0x87, 0xdc, 0xb9, 0x0e, 0x5c, 0xd8, 0xd2, 0xb7, 0x01, 0xdd,
  0x3b, 0xd2, 0xbe, 0x9e, 0x6f, 0xcd, 0xea, 0xf8, 0xf2, 0xc9, 0x9d, 0x17,
  0x40, 0xdd, 0xbf, 0xcc, 0x47, 0x38, 0x1b, 0xeb, 0x7f, 0xe4, 0xdf, 0x0b,
  0xe0, 0x91, 0x09, 0x5c, 0xf1, 0x06, 0xb8, 0x22, 0xe8, 0xc9, 0x18, 0xce,
  0x13, 0x01, 0x9e, 0xb9, 0x34, 0x81, 0x81, 0x2e, 0x1d, 0xf7, 0x17, 0xef,
  0xd4, 0xec, 0xb7, 0xd3, 0xe8, 0xd6, 0x9c, 0x18, 0x08, 0x9b, 0xcd, 0x90,
  0x5c, 0xfb, 0xdf, 0xce, 0x96, 0xe3, 0x30, 0xa3, 0xb4, 0xe4, 0x11, 0xb1,
  0x1a, 0xff, 0x86, 0x04, 0xd4, 0x03, 0xfe, 0xee, 0xb4, 0xf4, 0xc8, 0xe5,
  0xdb, 0x19, 0xc8, 0x10, 0xa3, 0xcc, 0xe9, 0x26, 0x0f, 0xa3, 0x1c, 0x16,
  0xae, 0x16, 0x00, 0x83, 0xc9, 0x8d, 0xd7, 0x0c, 0xb2, 0xef, 0x81, 0x0e,
  0xe4, 0xf0, 0xbe, 0xe1, 0x03, 0xb7, 0xd0, 0xa6, 0x10, 0x9c, 0xcd, 0xb8,
  0x9d, 0xaf, 0x93, 0x45, 0x0a, 0x4a, 0x94, 0x12, 0xd1, 0xa8, 0x13, 0xf6,
  0x16, 0xed, 0x97, 0x0e, 0x1c, 0xd1, 0x81, 0xef, 0xf9, 0xd0, 0xd4, 0xde,
  0xce, 0x07, 0x98, 0xd6, 0xa8, 0xc7, 0xa0, 0x05, 0x1a, 0xcc, 0xdd, 0xfe,
  0xf7, 0xf9, 0xe1, 0xc8, 0xbd, 0xb4, 0xb6, 0x02, 0xff, 0xac, 0xfe, 0xcb,
  0x17, 0xb7, 0xd0, 0xbb, 0xed, 0x0a, 0xce, 0x09, 0xfa, 0x0d, 0xd4, 0x02,
  0xa4, 0x05, 0xfc, 0x0e, 0xd5, 0x10, 0x47, 0xc8, 0xa8, 0xaf, 0x08, 0x02,
  0xc8, 0x24, 0xc8, 0x81, 0x62, 0x91, 0x86, 0x32, 0x9b, 0x9b, 0xe7, 0x32,
  0x26, 0xb7, 0x91, 0xed, 0x03, 0xcc, 0x2c, 0xd1, 0x18, 0xf1, 0xf2, 0xcc,
  0xfd, 0xe0, 0xe4, 0x4d, 0xfe, 0x5a, 0xbf, 0x4e, 0xfa, 0x90, 0x25, 0xb6,
  0x46, 0xb7, 0x8a, 0xb3, 0xf2, 0x0c, 0xe5, 0xb5, 0x01, 0xe1, 0xf5, 0xbd,
  0xaf, 0x1f, 0xa1, 0xea, 0x25, 0x81, 0x89, 0x2f, 0xc7, 0xd3, 0xe6, 0xab,
  0x24, 0xd1, 0x9a, 0x96, 0xda, 0x94, 0xca, 0xe8, 0xfe, 0xcc, 0xf1, 0x01,
  0xa0, 0x9d, 0x1d, 0x33, 0x0f, 0x26, 0xa5, 0x2f, 0xf8, 0xfe, 0xed, 0xf1,
  0xc4, 0x0e, 0xb4, 0xec, 0xf9, 0x87, 0xcd, 0x29, 0xfb, 0xfd, 0x3a, 0x07,
  0xcb, 0x0d, 0xc2, 0xff, 0xdb, 0x19, 0x0a, 0xea, 0xaa, 0xa5, 0xf1, 0x97,
  0x02, 0x0c, 0x12, 0xf1, 0xfb, 0x81, 0x2f, 0x8f, 0xfc, 0xfc, 0xd9, 0xec,
  0x1d, 0x09, 0xd2, 0x1d, 0x19, 0x4a, 0xba, 0xb9, 0xed, 0x11, 0xa9, 0xae,
  0x0d, 0xb5, 0xed, 0x14, 0xd5, 0xd1, 0x12, 0x26, 0xbf, 0x97, 0xb7, 0xb5,
  0x8d, 0xd9, 0xf6, 0x05, 0xcc, 0xb4, 0xae, 0xdc, 0x97, 0xa3, 0x81, 0x96,
  0x06, 0xd9, 0xb3, 0xde, 0x14, 0xcf, 0xe1, 0xc1, 0xda, 0xcb, 0x1c, 0xc2,
  0x02, 0xbd, 0x0c, 0xce, 0xce, 0x52, 0xdc, 0x12, 0xe5, 0x8d, 0xb1, 0xe6,
  0x23, 0x27, 0xee, 0x9d, 0xdc, 0x81, 0x16, 0xce, 0x24, 0xe7, 0x35, 0xbc,
  0xbf, 0xe9, 0x8b, 0xaf, 0x36, 0xd9, 0x8e, 0x60, 0x9f, 0xa9, 0xaa, 0x13,
  0x12, 0xb2, 0xbc, 0x8d, 0xf4, 0xc9, 0xf0, 0xf8, 0x5d, 0xfd, 0xb7, 0xa1,
  0x9a, 0x99, 0xaf, 0x5e, 0xf8, 0x78, 0xb5, 0xdf, 0xc7, 0xb2, 0xda, 0xb2,
  0x24, 0x96, 0xf6, 0xf9, 0xaa, 0x1a, 0x1a, 0xbb, 0x24, 0xdd, 0x2e, 0x02,
  0xd2, 0x03, 0x8f, 0xe9, 0xd2, 0xdc, 0xf4, 0xcc, 0x99, 0xff, 0xb8, 0x14,
  0xf0, 0xd3, 0x81, 0xe8, 0xce, 0x13, 0xc1, 0xab, 0x27, 0xd0, 0xb6, 0xd7,
  0xd9, 0x90, 0xa2, 0xe4, 0x0f, 0x08, 0x0a, 0x14, 0xcb, 0x90, 0xb1, 0x8f,
  0x08, 0xf4, 0xde, 0xdc, 0x36, 0xba, 0xe3, 0xf4, 0x4b, 0x45, 0x33, 0xe5,
  0x00, 0xe5, 0xf9, 0xd9, 0xec, 0xf5, 0xed, 0x19, 0xe0, 0x92, 0x23, 0xc4,
  0x77, 0xfc, 0xc4, 0x95, 0xd6, 0xc3, 0x18, 0xd3, 0xeb, 0xc8, 0xa0, 0x81,
  0xc1, 0xc4, 0x05, 0x41, 0x0d, 0xed, 0x94, 0x40, 0xc9, 0xb8, 0x95, 0xda,
  0xdd, 0xc3, 0xcc, 0xe1, 0x13, 0xca, 0x81, 0x12, 0xf4, 0x20, 0x20, 0xff,
  0xd0, 0xf2, 0xd1, 0xf3, 0xa6, 0x11, 0xfc, 0xef, 0xda, 0x01, 0x0d, 0xe6,
  0x1e, 0xc8, 0x08, 0xdd, 0x96, 0x8c, 0xcb, 0xf6, 0xb8, 0xc1, 0xe1, 0xb5,
  0xdf, 0x0c, 0xd1, 0xae, 0xf6, 0xd2, 0xd9, 0xcc, 0xe1, 0x16, 0xb3, 0xcf,
  0xbc, 0xff, 0x2c, 0x11, 0xf8, 0xf9, 0xbb, 0x4a, 0x1d, 0xf6, 0x4b, 0xc2,
  0xd5, 0xdd, 0x10, 0xd7, 0xe4, 0xfd, 0xe0, 0x2a, 0x33, 0xa4, 0xce, 0x81,
  0x4b, 0x8b, 0x1e, 0xb1, 0xae, 0x8a, 0xb1, 0xc1, 0xfe, 0xa9, 0xa6, 0xdd,
  0x0f, 0xba, 0xbe, 0xc5, 0xae, 0x38, 0x9f, 0xc4, 0x89, 0x2a, 0xee, 0xb5,
  0xbe, 0xcf, 0x2a, 0x40, 0x09, 0x93, 0xe7, 0xbb, 0x05, 0xf1, 0x05, 0x1d,
  0xc7, 0xab, 0xda, 0xda, 0x3a, 0x87, 0x81, 0xe3, 0x0d, 0xb6, 0xe4, 0x1c,
  0x1b, 0x91, 0x9a, 0xed, 0xf2, 0xe6, 0xe7, 0xde, 0x3f, 0xed, 0x95, 0xc6,
  0xb4, 0x89, 0x8e, 0x25, 0xf0, 0xd2, 0xe3, 0xf7, 0x17, 0xc2, 0xf7, 0xe4,
  0xaf, 0xe5, 0xaa, 0x15, 0x0e, 0xce, 0x9c, 0x07, 0x20, 0xf2, 0xd7, 0xbc,
  0xc7, 0x01, 0x9d, 0xaf, 0xce, 0xdb, 0xf9, 0xfe, 0x05, 0x9a, 0xd6, 0xb0,
  0x29, 0xe4, 0xec, 0xda, 0xb1, 0x81, 0x07, 0xbf, 0xfc, 0x8b, 0xdb, 0x8c,
  0xf0, 0xfe, 0xb9, 0xcc, 0xd8, 0x1e, 0xe3, 0x08, 0x93, 0xed, 0xa0, 0x9d,
  0xed, 0xb1, 0x17, 0xd9, 0xa3, 0xf8, 0x2e, 0x48, 0xee, 0xfc, 0x08, 0xdf,
  0xc6, 0x17, 0xf4, 0x0a, 0x2b, 0xa8, 0xa9, 0x4e, 0xbd, 0xe1, 0xb1, 0xbb,
  0x61, 0xa8, 0xbf, 0x99, 0xad, 0xb0, 0xe2, 0xef, 0x7f, 0xab, 0xa9, 0xde,
  0xf9, 0x9c, 0x9d, 0x28, 0xcb, 0xf3, 0xb5, 0xe9, 0xb4, 0xce, 0x1b, 0xd6,
  0xe2, 0xce, 0xcc, 0xf5, 0xef, 0xb8, 0xb5, 0xe6, 0xc4, 0xdb, 0xde, 0xd9,
  0x82, 0xea, 0x8b, 0xdb, 0x9c, 0xe4, 0xb7, 0xd0, 0xa0, 0xc2, 0xee, 0x9f,
  0x01, 0xaa, 0xa4, 0x8c, 0xb9, 0x93, 0xc7, 0x81, 0xdf, 0x95, 0xc6, 0xc7,
  0x95, 0xe9, 0x9c, 0xc2, 0xb8, 0xf9, 0xc8, 0xb7, 0xe1, 0xf7, 0xe2, 0x8c,
  0xb0, 0xda, 0x06, 0xa3, 0xb5, 0xb3, 0xb3, 0xe4, 0xe6, 0xe7, 0x35, 0xc3,
  0xda, 0xb6, 0x99, 0x01, 0x19, 0x85, 0xd1, 0x22, 0x18, 0x82, 0xd6, 0xa7,
  0xf0, 0x9e, 0xe7, 0xe8, 0xbb, 0xaa, 0x49, 0xda, 0x65, 0xd6, 0xc6, 0xeb,
  0x0b, 0x11, 0x20, 0x60, 0xc4, 0x08, 0x97, 0x26, 0x18, 0x8d, 0xdd, 0x81,
  0x14, 0xfc, 0xb1, 0x1c, 0xed, 0xd5, 0xba, 0xf6, 0xfc, 0x8b, 0xfa, 0xe0,
  0xb7, 0xe0, 0xc8, 0x99, 0xc8, 0xae, 0xd1, 0xdb, 0xd9, 0x81, 0xa9, 0x94,
  0xdf, 0xe8, 0xc6, 0x95, 0xc5, 0xc8, 0xd2, 0xce, 0xd3, 0xda, 0xce, 0xd0,
  0xa8, 0xe1, 0xa6, 0xcd, 0xb6, 0xfe, 0xba, 0xd6, 0xcc, 0x9b, 0xe3, 0x8c,
  0xeb, 0xb4, 0x84, 0x98, 0x0f, 0xe9, 0x84, 0x43, 0xfe, 0xb8, 0xd4, 0x53,
  0xdf, 0x2b, 0x96, 0xf7, 0xf7, 0xa3, 0x95, 0xf9, 0xd6, 0xc5, 0xb7, 0x0d,
  0xff, 0x09, 0x0c, 0x11, 0x02, 0x81, 0xe3, 0xcc, 0x4d, 0xf4, 0x24, 0xef,
  0x01, 0x0b, 0xf8, 0x29, 0xb7, 0x3f, 0x27, 0xc8, 0xf4, 0xf2, 0x9b, 0x0e,
  0x1a, 0xbf, 0x1e, 0xf7, 0x98, 0xdd, 0x45, 0xcb, 0xec, 0xfc, 0xcd, 0xf2,
  0x28, 0xdb, 0xf0, 0xd5, 0x25, 0xd0, 0xdf, 0xf6, 0xdf, 0xc1, 0xeb, 0x22,
  0x40, 0x15, 0xa6, 0xd0, 0x3f, 0x45, 0xe4, 0xfd, 0x60, 0xf5, 0xd1, 0x09,
  0xc6, 0xc9, 0x06, 0x1c, 0xf3, 0x1e, 0xe6, 0x1a, 0x10, 0x8f, 0x01, 0xda,
  0x1e, 0xe1, 0x81, 0xee, 0xed, 0x99, 0x15, 0x18, 0x26, 0x27, 0x03, 0xc4,
  0xc1, 0xe5, 0xf4, 0x90, 0x0f, 0xb9, 0xc5, 0x33, 0xa3, 0x0d, 0x8a, 0xda,
  0x42, 0x08, 0x81, 0xc8, 0xca, 0xe1, 0xc2, 0x9b, 0x38, 0x9b, 0xad, 0x8d,
  0x02, 0x01, 0xc0, 0x34, 0xea, 0x2b, 0xaa, 0x47, 0x20, 0xec, 0xf9, 0xa9,
  0x14, 0x04, 0xb8, 0xf2, 0xca, 0x8e, 0xcf, 0xf5, 0x01, 0xe4, 0xf0, 0xf7,
  0x8f, 0xdd, 0xa6, 0xd7, 0xf0, 0xb5, 0xcb, 0xc4, 0x96, 0xc7, 0xdd, 0xce,
  0xc7, 0xdf, 0xae, 0xa2, 0xac, 0xbb, 0xf7, 0x81, 0xca, 0xaf, 0xe7, 0xa2,
  0xd2, 0xcf, 0xc8, 0xe6, 0xcd, 0xdf, 0xd3, 0xaf, 0xc9, 0xeb, 0xb8, 0x83,
  0xa0, 0xe3, 0xfd, 0xba, 0x09, 0xa8, 0xfe, 0xfa, 0xc9, 0xea, 0x21, 0x34,
  0x16, 0x01, 0x85, 0xfa, 0x1f, 0xe0, 0x81, 0x0e, 0xb9, 0xb0, 0xbb, 0xdd,
  0xea, 0x0e, 0xbe, 0xad, 0x00, 0xaa, 0x33, 0xd2, 0x10, 0xa2, 0xae, 0xc2,
  0x8b, 0xb4, 0xa4, 0xf4, 0xc1, 0x03, 0xbd, 0xd7, 0xe7, 0xed, 0xff, 0xec,
  0x32, 0x9b, 0x85, 0xf6, 0xb9, 0x0a, 0xb6, 0x2f, 0xcc, 0x1b, 0x3a, 0x06,
  0x26, 0xba, 0x97, 0xac, 0x54, 0xe7, 0xe7, 0xd8, 0xa7, 0x04, 0xd7, 0x0d,
  0x47, 0xb2, 0xfc, 0xa6, 0x23, 0xa1, 0xc5, 0xbe, 0xee, 0x91, 0xcc, 0x14,
  0x96, 0xd0, 0xe3, 0x1f, 0xfc, 0x55, 0x03, 0x27, 0xcb, 0x81, 0xbc, 0x07,
  0xce, 0xac, 0xe0, 0x99, 0xa2, 0xe7, 0xff, 0xff, 0x04, 0x00, 0x00, 0x00,
  0xf0, 0x12, 0x00, 0x00, 0xb5, 0xbf, 0xb5, 0x88, 0xd6, 0xa9, 0xbd, 0xa1,
  0xcc, 0xa7, 0x92, 0x8f, 0xac, 0xae, 0xc9, 0xcc, 0xc2, 0xd1, 0xd1, 0xcd,
  0xd7, 0xdb, 0xa2, 0x81, 0xd0, 0xb4, 0xdb, 0x94, 0xb7, 0xcc, 0xcb, 0xb2,
  0xba, 0xc1, 0xe6, 0xd0, 0xbc, 0xce, 0xa9, 0xcb, 0xb6, 0xc8, 0xcd, 0x8e,
  0xb3, 0xcb, 0xb8, 0xb7, 0xeb, 0xed, 0xeb, 0xed, 0xda, 0xef, 0xf0, 0xf1,
  0xed, 0xf3, 0xe9, 0xf2, 0xf3, 0xee, 0xd9, 0xf0, 0xf3, 0x81, 0xe9, 0xed,
  0xe3, 0xef, 0xf7, 0xec, 0xee, 0xf2, 0xe9, 0xf0, 0xe7, 0xf3, 0xeb, 0xf1,
  0xf6, 0xe5, 0xe6, 0xe9, 0xeb, 0xe0, 0xeb, 0xb6, 0xee, 0xce, 0xf4, 0xf1,
  0xea, 0xca, 0xee, 0xf8, 0xee, 0xef, 0xe7, 0xf3, 0xd7, 0xf0, 0xf2, 0xf2,
  0xec, 0xf0, 0xe6, 0xf3, 0xf7, 0xee, 0xd9, 0xf6, 0xeb, 0x81, 0xed, 0xe6,
  0xe3, 0xeb, 0xf8, 0xee, 0xee, 0xf1, 0xf3, 0xf1, 0xe8, 0xf5, 0xf4, 0xf3,
  0xf1, 0xeb, 0xea, 0xe5, 0xe9, 0xe7, 0xed, 0xb8, 0xea, 0xce, 0xf1, 0xef,
  0xf1, 0xc8, 0xee, 0xf2, 0xec, 0xf5, 0xed, 0xee, 0xde, 0xf1, 0xf5, 0xee,
  0xed, 0xf2, 0xed, 0xec, 0xf8, 0xef, 0xd4, 0xf3, 0xed, 0x81, 0xee, 0xeb,
  0xe0, 0xf3, 0xf0, 0xee, 0xea, 0xf3, 0xed, 0xec, 0xe8, 0xf4, 0xf0, 0xf3,
  0xf6, 0xe6, 0xec, 0xe9, 0xec, 0xe3, 0xec, 0xb8, 0xeb, 0xd2, 0xf6, 0xf2,
  0xea, 0xcd, 0xf2, 0xf5, 0xef, 0xf4, 0xed, 0xf1, 0xda, 0xf3, 0xf0, 0xed,
  0xed, 0xf6, 0xec, 0xeb, 0xf4, 0xf1, 0xd8, 0xf2, 0xf0, 0x81, 0xef, 0xe9,
  0xe3, 0xf1, 0xf2, 0xe9, 0xe7, 0xee, 0xee, 0xf0, 0xeb, 0xf3, 0xf1, 0xf2,
  0xf0, 0xed, 0xec, 0xea, 0xec, 0xe8, 0xec, 0xb4, 0xe8, 0xcf, 0xf4, 0xeb,
  0xe9, 0xd2, 0xef, 0xf7, 0xf0, 0xed, 0xe9, 0xea, 0xdf, 0xf4, 0xf0, 0xed,
  0xe8, 0xf0, 0xee, 0xf1, 0xf8, 0xee, 0xda, 0xf6, 0xee, 0x81, 0xf2, 0xe7,
  0xe7, 0xed, 0xf3, 0xef, 0xef, 0xee, 0xea, 0xed, 0xe9, 0xf1, 0xec, 0xf0,
  0xf8, 0xea, 0xe6, 0xe3, 0xed, 0xe0, 0xee, 0xbb, 0xea, 0xd1, 0xf6, 0xeb,
  0xe9, 0xcc, 0xee, 0xf2, 0xec, 0xf3, 0xed, 0xef, 0xde, 0xf4, 0xf8, 0xec,
  0xe7, 0xf0, 0xee, 0xf4, 0xf5, 0xee, 0xd3, 0xef, 0xec, 0x81, 0xf0, 0xed,
  0xe4, 0xea, 0xf3, 0xe9, 0xe8, 0xec, 0xf1, 0xe9, 0xe7, 0xf2, 0xed, 0xf2,
  0xf9, 0xe5, 0xea, 0xe5, 0xee, 0xe1, 0xf1, 0xb7, 0xef, 0xce, 0xf6, 0xf3,
  0xee, 0xcb, 0xf4, 0xf1, 0xea, 0xf1, 0xe8, 0xee, 0xdd, 0xef, 0xf3, 0xed,
  0xed, 0xf2, 0xeb, 0xf1, 0xf0, 0xf4, 0xd4, 0xef, 0xea, 0x81, 0xef, 0xe7,
  0xde, 0xea, 0xf0, 0xed, 0xed, 0xf2, 0xe9, 0xf0, 0xe6, 0xf5, 0xf2, 0xef,
  0xf9, 0xec, 0xea, 0xe7, 0xec, 0xe4, 0xea, 0xb7, 0xeb, 0xd0, 0xf2, 0xec,
  0xee, 0xce, 0xee, 0xf9, 0xf1, 0xf3, 0xef, 0xed, 0xdc, 0xf6, 0xf7, 0xf3,
  0xe9, 0xf1, 0xe9, 0xf3, 0xf8, 0xf5, 0xdc, 0xf2, 0xf2, 0x81, 0xee, 0xe7,
  0xe5, 0xee, 0xf8, 0xea, 0xeb, 0xf2, 0xeb, 0xea, 0xe5, 0xf2, 0xf3, 0xf3,
  0xf4, 0xea, 0xed, 0xec, 0xea, 0xe6, 0xf3, 0xb6, 0xee, 0xd3, 0xf1, 0xee,
  0xea, 0xcb, 0xf1, 0xf4, 0xf2, 0xf2, 0xec, 0xee, 0xde, 0xf5, 0xf7, 0xef,
  0xea, 0xf3, 0xea, 0xee, 0xf6, 0xf4, 0xd4, 0xf2, 0xec, 0x81, 0xf4, 0xe8,
  0xe3, 0xec, 0xf4, 0xed, 0xeb, 0xf1, 0xf2, 0xec, 0xe6, 0xf9, 0xef, 0xf5,
  0xf2, 0xe9, 0xeb, 0xe5, 0xed, 0xe1, 0xf0, 0xb5, 0xf0, 0xd5, 0xf5, 0xf4,
  0xea, 0xd0, 0xf3, 0xf6, 0xed, 0xf1, 0xee, 0xf1, 0xdd, 0xf5, 0xf8, 0xf4,
  0xed, 0xf2, 0xe9, 0xee, 0xf8, 0xf4, 0xdb, 0xf3, 0xee, 0x81, 0xec, 0xee,
  0xe3, 0xf0, 0xf1, 0xf0, 0xee, 0xef, 0xed, 0xec, 0xe9, 0xf7, 0xef, 0xf0,
  0xf9, 0xea, 0xe6, 0xea, 0xec, 0xe1, 0xed, 0xbb, 0xeb, 0xd5, 0xf5, 0xf0,
  0xe9, 0xcb, 0xee, 0xfa, 0xf2, 0xf2, 0xe9, 0xf1, 0xde, 0xf4, 0xf6, 0xee,
  0xee, 0xf9, 0xe8, 0xf5, 0xf2, 0xf1, 0xda, 0xf7, 0xf3, 0x81, 0xf1, 0xec,
  0xe0, 0xed, 0xf1, 0xee, 0xe8, 0xf2, 0xed, 0xef, 0xe5, 0xf9, 0xf4, 0xf2,
  0xf7, 0xe6, 0xe7, 0xec, 0xea, 0xe5, 0xf0, 0xba, 0xee, 0xd6, 0xf0, 0xf4,
  0xef, 0xcf, 0xef, 0xf7, 0xec, 0xf4, 0xeb, 0xeb, 0xd9, 0xf0, 0xf6, 0xf4,
  0xe7, 0xf6, 0xe9, 0xed, 0xf5, 0xef, 0xd4, 0xf1, 0xf2, 0x81, 0xed, 0xe6,
  0xe0, 0xeb, 0xf3, 0xe9, 0xe9, 0xf0, 0xef, 0xed, 0xec, 0xf8, 0xf4, 0xf4,
  0xf3, 0xe6, 0xe4, 0xea, 0xe9, 0xe3, 0xf1, 0xb4, 0xf0, 0xcf, 0xf4, 0xf2,
  0xe9, 0xcb, 0xee, 0xf6, 0xf2, 0xef, 0xf0, 0xf5, 0xdd, 0xfa, 0xf9, 0xf3,
  0xee, 0xf3, 0xed, 0xf2, 0xf9, 0xf2, 0xd8, 0xf5, 0xf4, 0x81, 0xf0, 0xeb,
  0xe8, 0xf2, 0xf2, 0xeb, 0xed, 0xf3, 0xf3, 0xf1, 0xee, 0xf9, 0xee, 0xf7,
  0xf5, 0xea, 0xe8, 0xe7, 0xed, 0xe7, 0xee, 0xb7, 0xec, 0xd9, 0xf3, 0xf3,
  0xf2, 0xcc, 0xf3, 0xf5, 0xf2, 0xf3, 0xee, 0xed, 0xdb, 0xf7, 0xf7, 0xef,
  0xf1, 0xf4, 0xe7, 0xf6, 0xf7, 0xf2, 0xd7, 0xf0, 0xf1, 0x81, 0xee, 0xf0,
  0xe9, 0xee, 0xf8, 0xe9, 0xf2, 0xf3, 0xf0, 0xf2, 0xee, 0xf4, 0xf6, 0xf5,
  0xfd, 0xed, 0xed, 0xee, 0xf0, 0xec, 0xee, 0xb3, 0xf0, 0xd9, 0xf4, 0xf2,
  0xf0, 0xd3, 0xf2, 0xf6, 0xef, 0xef, 0xea, 0xf1, 0xdc, 0xf6, 0xf4, 0xf1,
  0xea, 0xf6, 0xef, 0xf2, 0xf8, 0xf3, 0xd3, 0xf4, 0xf3, 0x81, 0xec, 0xef,
  0xe3, 0xf5, 0xf2, 0xe9, 0xf1, 0xf1, 0xeb, 0xf4, 0xe8, 0xf8, 0xee, 0xf7,
  0xfd, 0xea, 0xe6, 0xee, 0xf4, 0xe9, 0xf1, 0xb5, 0xeb, 0xd5, 0xf6, 0xf4,
  0xf0, 0xcc, 0xf4, 0xf4, 0xee, 0xf6, 0xea, 0xed, 0xdb, 0xf6, 0xf5, 0xef,
  0xe9, 0xf3, 0xea, 0xf5, 0xfa, 0xf7, 0xd8, 0xf6, 0xf4, 0x81, 0xf4, 0xee,
  0xe1, 0xf2, 0xf0, 0xee, 0xed, 0xf0, 0xec, 0xeb, 0xe9, 0xf9, 0xf6, 0xf5,
  0xfb, 0xe8, 0xe7, 0xeb, 0xf0, 0xe9, 0xf3, 0xb2, 0xf3, 0xd2, 0xf3, 0xf4,
  0xec, 0xc9, 0xf6, 0xf3, 0xf2, 0xf1, 0xee, 0xef, 0xd8, 0xf6, 0xf7, 0xf3,
  0xf1, 0xf5, 0xf0, 0xf4, 0xf7, 0xf8, 0xda, 0xf1, 0xf1, 0x81, 0xed, 0xf0,
  0xe6, 0xef, 0xf9, 0xed, 0xec, 0xf3, 0xf0, 0xf2, 0xeb, 0xf3, 0xf4, 0xf2,
  0xf7, 0xec, 0xe6, 0xe7, 0xf1, 0xe9, 0xf1, 0xb8, 0xec, 0xd3, 0xf8, 0xf3,
  0xee, 0xc9, 0xef, 0xf5, 0xeb, 0xf4, 0xee, 0xf2, 0xd9, 0xf5, 0xf4, 0xf6,
  0xee, 0xf4, 0xef, 0xed, 0xf6, 0xf8, 0xd4, 0xf4, 0xef, 0x81, 0xf1, 0xeb,
  0xe0, 0xf4, 0xf5, 0xec, 0xe9, 0xf7, 0xf3, 0xee, 0xef, 0xf3, 0xee, 0xf3,
  0xf7, 0xe9, 0xec, 0xe7, 0xed, 0xe8, 0xef, 0xae, 0xf3, 0xd2, 0xf4, 0xf0,
  0xeb, 0xcd, 0xf6, 0xfa, 0xf0, 0xf2, 0xee, 0xf3, 0xe0, 0xf7, 0xfd, 0xef,
  0xf3, 0xf4, 0xec, 0xf1, 0xf6, 0xf1, 0xd5, 0xf4, 0xee, 0x81, 0xf2, 0xec,
  0xe7, 0xef, 0xf4, 0xf0, 0xf0, 0xf8, 0xed, 0xf2, 0xed, 0xfc, 0xf1, 0xf9,
  0xf9, 0xed, 0xea, 0xe6, 0xed, 0xe3, 0xf5, 0xb6, 0xf1, 0xcf, 0xf8, 0xef,
  0xee, 0xcf, 0xf1, 0xf6, 0xee, 0xf2, 0xef, 0xf2, 0xda, 0xf7, 0xf7, 0xf0,
  0xf2, 0xf9, 0xef, 0xf4, 0xf4, 0xf7, 0xd8, 0xf3, 0xf6, 0x81, 0xef, 0xf0,
  0xe2, 0xf0, 0xfa, 0xe6, 0xf2, 0xf5, 0xf4, 0xf2, 0xeb, 0xfb, 0xf0, 0xf1,
  0xf5, 0xee, 0xeb, 0xee, 0xf0, 0xe8, 0xef, 0xba, 0xf0, 0xd1, 0xf1, 0xf2,
  0xf0, 0xd2, 0xf4, 0xf7, 0xf0, 0xf0, 0xea, 0xeb, 0xe1, 0xf6, 0xf7, 0xf1,
  0xed, 0xf7, 0xeb, 0xea, 0xf9, 0xf7, 0xdb, 0xf3, 0xf0, 0x81, 0xf3, 0xe7,
  0xe4, 0xf4, 0xf3, 0xe8, 0xf2, 0xf5, 0xef, 0xe9, 0xec, 0xf4, 0xed, 0xef,
  0xf3, 0xef, 0xe4, 0xe9, 0xea, 0xe5, 0xf4, 0xb2, 0xeb, 0xd0, 0xf3, 0xed,
  0xec, 0xc9, 0xf3, 0xfe, 0xe2, 0xed, 0xe2, 0xd3, 0xdb, 0xe7, 0xee, 0xe7,
  0xe8, 0xeb, 0xd5, 0xdc, 0xe4, 0xe9, 0xd1, 0xe8, 0xee, 0x81, 0xec, 0xe6,
  0xe4, 0xe8, 0xe7, 0xcc, 0xe4, 0xf0, 0xe7, 0xde, 0xe3, 0xeb, 0xec, 0xe4,
  0xf1, 0xea, 0xda, 0xe0, 0xe4, 0xe6, 0xe8, 0xaf, 0xe0, 0xcf, 0xe8, 0xd2,
  0xe8, 0xc1, 0xf1, 0xec, 0xce, 0xd6, 0xd1, 0xb3, 0xce, 0xcf, 0xce, 0xc5,
  0xcb, 0xc1, 0xac, 0xb2, 0xbb, 0xcf, 0xcc, 0xd9, 0xd1, 0x81, 0xdd, 0xbf,
  0xd5, 0xc9, 0xc6, 0xa4, 0xd9, 0xd1, 0xde, 0xbd, 0xdc, 0xd5, 0xd6, 0xce,
  0xc9, 0xda, 0xc9, 0xd7, 0xd5, 0xd0, 0xc8, 0x9e, 0xd5, 0xba, 0xdd, 0xab,
  0xd2, 0xc1, 0xd3, 0xd4, 0xbe, 0xc5, 0xcd, 0x93, 0xca, 0xba, 0xc8, 0xb8,
  0xcd, 0xab, 0xa0, 0xa4, 0xae, 0xb7, 0xcf, 0xda, 0xd9, 0xa4, 0xdb, 0xcc,
  0xda, 0xcc, 0xa8, 0x81, 0xd5, 0xc8, 0xd2, 0xae, 0xd3, 0xd0, 0xbf, 0xcb,
  0xba, 0xc9, 0xc7, 0xcf, 0xc3, 0xdd, 0xbd, 0xae, 0xce, 0xcd, 0xd5, 0x92,
  0xbe, 0xc0, 0xce, 0xbb, 0xc5, 0xad, 0xc6, 0x9a, 0xb4, 0xa5, 0x94, 0xbf,
  0xc2, 0x8f, 0xb5, 0x9b, 0x86, 0x9e, 0xc7, 0xb3, 0xca, 0x87, 0xc6, 0xca,
  0xb0, 0x9f, 0x9a, 0xa2, 0xcb, 0xc5, 0xaa, 0xc4, 0xc2, 0x8a, 0xb6, 0xc3,
  0x81, 0xb8, 0x95, 0xad, 0xa8, 0xca, 0xc8, 0x9d, 0xae, 0xd2, 0x90, 0x8d,
  0xc5, 0xcb, 0xba, 0x8e, 0xa8, 0xbd, 0xb4, 0xb4, 0xc6, 0xae, 0x94, 0xaf,
  0x92, 0xb2, 0xbc, 0xb9, 0xa6, 0xb9, 0xcc, 0xaf, 0xa6, 0x93, 0xbe, 0x81,
  0xbb, 0x8a, 0xae, 0xba, 0xaa, 0xbe, 0xb9, 0xba, 0xba, 0xa9, 0xb1, 0xb9,
  0xa0, 0xae, 0x82, 0x99, 0xb7, 0x9d, 0xaa, 0xaa, 0xac, 0xc2, 0xaf, 0xb9,
  0xac, 0xa7, 0xbf, 0xa3, 0xbf, 0xba, 0xc5, 0xab, 0xbe, 0xa2, 0x9a, 0xb0,
  0x99, 0xa2, 0xaf, 0xa1, 0xb4, 0xb2, 0xc4, 0xcc, 0xaf, 0x90, 0xc1, 0x81,
  0xbd, 0x88, 0xb0, 0xac, 0xa5, 0xb8, 0xb6, 0xb1, 0xc4, 0xb3, 0xc1, 0xbc,
  0xb0, 0xb1, 0x87, 0xb4, 0xbf, 0xb2, 0xa5, 0x9c, 0xb5, 0xbf, 0xbe, 0xb1,
  0xae, 0xb3, 0xba, 0xaf, 0xcb, 0xd6, 0xd1, 0xaf, 0xcc, 0xbc, 0xb3, 0xb7,
  0xa3, 0xc0, 0xbf, 0xb1, 0xc2, 0xd4, 0xc7, 0xda, 0xc2, 0x81, 0xc6, 0x9d,
  0xd2, 0xaa, 0xb7, 0xa5, 0xba, 0xd2, 0xc0, 0xbf, 0xdd, 0xb9, 0xd2, 0xc4,
  0xc3, 0xbd, 0xa1, 0xb9, 0xc8, 0xc5, 0xb9, 0x99, 0xcc, 0xc3, 0xca, 0xac,
  0xbd, 0xb2, 0xd1, 0xc0, 0xd3, 0xd9, 0xd2, 0xb9, 0xce, 0xc8, 0xc6, 0xc3,
  0xbc, 0xca, 0xc0, 0xc2, 0xd0, 0xd3, 0xc9, 0xd7, 0xcb, 0x81, 0xd3, 0xb9,
  0xd0, 0xb9, 0xce, 0xb4, 0xc6, 0xd0, 0xcd, 0xbe, 0xda, 0xce, 0xd7, 0xce,
  0xcc, 0xd6, 0xad, 0xc7, 0xd4, 0xc5, 0xce, 0xa6, 0xce, 0xc3, 0xd0, 0xb7,
  0xcc, 0xbf, 0xd1, 0xcb, 0xde, 0xe6, 0xd6, 0xbd, 0xd2, 0xd7, 0xd6, 0xdb,
  0xc8, 0xd3, 0xc6, 0xc4, 0xdb, 0xe0, 0xc6, 0xdd, 0xdd, 0x81, 0xe4, 0xc3,
  0xd5, 0xc6, 0xd0, 0xc7, 0xd3, 0xde, 0xe2, 0xcf, 0xe0, 0xde, 0xda, 0xd6,
  0xdc, 0xdd, 0xc7, 0xd6, 0xd6, 0xd0, 0xda, 0xa1, 0xd6, 0xc2, 0xdf, 0xc1,
  0xd9, 0xb4, 0xe1, 0xdc, 0xe0, 0xf2, 0xe1, 0xda, 0xd0, 0xe5, 0xe7, 0xe3,
  0xda, 0xeb, 0xd7, 0xdf, 0xe3, 0xe9, 0xce, 0xe5, 0xe1, 0x81, 0xe2, 0xd9,
  0xe1, 0xe0, 0xe3, 0xd1, 0xe5, 0xe3, 0xe1, 0xdd, 0xea, 0xe9, 0xec, 0xe3,
  0xe8, 0xe0, 0xcb, 0xdc, 0xe5, 0xd8, 0xe3, 0x9d, 0xdd, 0xc0, 0xee, 0xdd,
  0xe7, 0xbc, 0xec, 0xe8, 0xf0, 0xef, 0xe5, 0xe1, 0xdd, 0xf4, 0xf1, 0xed,
  0xe5, 0xf4, 0xe8, 0xe5, 0xf1, 0xf0, 0xd1, 0xf5, 0xee, 0x81, 0xf1, 0xe2,
  0xe2, 0xe8, 0xf0, 0xe3, 0xe6, 0xf3, 0xf0, 0xe8, 0xe5, 0xf2, 0xef, 0xf1,
  0xf9, 0xe7, 0xe4, 0xe8, 0xef, 0xe4, 0xf0, 0xb1, 0xe7, 0xce, 0xf3, 0xe5,
  0xeb, 0xcb, 0xef, 0xf8, 0xed, 0xf4, 0xf0, 0xf1, 0xd8, 0xf6, 0xf8, 0xf1,
  0xef, 0xfc, 0xeb, 0xee, 0xf6, 0xf0, 0xd1, 0xf7, 0xf3, 0x81, 0xea, 0xe6,
  0xe0, 0xf1, 0xf1, 0xe3, 0xf2, 0xf5, 0xf0, 0xed, 0xec, 0xf9, 0xf5, 0xee,
  0xf9, 0xeb, 0xe5, 0xe8, 0xf0, 0xe8, 0xee, 0xb4, 0xf1, 0xd5, 0xf0, 0xec,
  0xf0, 0xcf, 0xf2, 0xfa, 0xf0, 0xf0, 0xed, 0xed, 0xde, 0xf7, 0xf9, 0xf5,
  0xf0, 0xfc, 0xef, 0xf1, 0xf5, 0xf0, 0xd2, 0xf6, 0xed, 0x81, 0xf1, 0xe9,
  0xe6, 0xec, 0xf3, 0xe7, 0xee, 0xf5, 0xee, 0xef, 0xed, 0xf7, 0xf1, 0xf3,
  0xf6, 0xea, 0xe6, 0xe7, 0xf3, 0xe5, 0xf2, 0xb0, 0xf0, 0xd2, 0xf2, 0xed,
  0xef, 0xc8, 0xef, 0xf8, 0xf0, 0xf2, 0xea, 0xef, 0xdc, 0xf9, 0xf9, 0xf0,
  0xee, 0xfa, 0xed, 0xef, 0xfa, 0xf2, 0xdc, 0xf1, 0xf1, 0x81, 0xf0, 0xed,
  0xe4, 0xec, 0xf8, 0xea, 0xee, 0xf6, 0xee, 0xef, 0xe8, 0xf5, 0xee, 0xf5,
  0xfd, 0xe7, 0xe5, 0xed, 0xef, 0xe7, 0xf1, 0xb0, 0xf1, 0xd7, 0xf0, 0xef,
  0xf1, 0xcc, 0xf7, 0xfc, 0xec, 0xee, 0xed, 0xef, 0xdd, 0xf7, 0xf8, 0xf3,
  0xee, 0xfa, 0xe7, 0xf1, 0xf7, 0xf8, 0xd5, 0xf2, 0xef, 0x81, 0xf2, 0xeb,
  0xe4, 0xee, 0xf7, 0xeb, 0xed, 0xf4, 0xec, 0xed, 0xe5, 0xf5, 0xf1, 0xf0,
  0xf8, 0xe8, 0xeb, 0xeb, 0xea, 0xe8, 0xef, 0xb4, 0xee, 0xce, 0xf5, 0xf3,
  0xea, 0xcf, 0xf0, 0xf4, 0xef, 0xf0, 0xee, 0xef, 0xdc, 0xf0, 0xf3, 0xf1,
  0xe9, 0xf3, 0xed, 0xf4, 0xf2, 0xef, 0xd1, 0xf0, 0xf0, 0x81, 0xf0, 0xe8,
  0xe5, 0xf2, 0xf0, 0xe6, 0xef, 0xf2, 0xec, 0xee, 0xe6, 0xf8, 0xf0, 0xf4,
  0xf7, 0xe5, 0xe8, 0xe2, 0xf1, 0xe0, 0xf1, 0xb0, 0xf0, 0xd3, 0xf2, 0xef,
  0xe9, 0xcc, 0xf1, 0xf8, 0xed, 0xee, 0xec, 0xf3, 0xdd, 0xf6, 0xf1, 0xf1,
  0xe5, 0xf0, 0xe5, 0xee, 0xf1, 0xee, 0xd3, 0xf0, 0xeb, 0x81, 0xec, 0xe3,
  0xe5, 0xef, 0xf3, 0xea, 0xec, 0xf3, 0xec, 0xeb, 0xea, 0xf2, 0xed, 0xec,
  0xf1, 0xe4, 0xe4, 0xe5, 0xf0, 0xe5, 0xea, 0xb4, 0xeb, 0xd4, 0xf5, 0xec,
  0xef, 0xce, 0xec, 0xf8, 0xed, 0xed, 0xe5, 0xe9, 0xdc, 0xf5, 0xf6, 0xeb,
  0xec, 0xf2, 0xea, 0xed, 0xf3, 0xf1, 0xd2, 0xf1, 0xeb, 0x81, 0xf1, 0xe4,
  0xe2, 0xeb, 0xf0, 0xe7, 0xe5, 0xee, 0xe7, 0xee, 0xe2, 0xee, 0xe9, 0xec,
  0xf5, 0xe4, 0xe7, 0xe0, 0xe8, 0xe5, 0xf0, 0xb3, 0xe8, 0xcf, 0xf0, 0xeb,
  0xed, 0xc8, 0xf0, 0xf6, 0xe5, 0xea, 0xe6, 0xf0, 0xd8, 0xee, 0xf6, 0xec,
  0xea, 0xf4, 0xe5, 0xe9, 0xef, 0xf1, 0xd3, 0xee, 0xf0, 0x81, 0xed, 0xea,
  0xe4, 0xea, 0xf3, 0xe4, 0xec, 0xee, 0xe9, 0xe9, 0xe4, 0xed, 0xec, 0xeb,
  0xee, 0xe2, 0xe3, 0xe7, 0xed, 0xe1, 0xe7, 0xb2, 0xe7, 0xd1, 0xf2, 0xf0,
  0xe7, 0xc8, 0xf1, 0xf3, 0xe7, 0xec, 0xec, 0xf1, 0xdb, 0xf5, 0xf0, 0xf1,
  0xe5, 0xed, 0xe6, 0xed, 0xf3, 0xeb, 0xd6, 0xf3, 0xeb, 0x81, 0xed, 0xe4,
  0xe0, 0xec, 0xed, 0xe9, 0xe7, 0xec, 0xe8, 0xeb, 0xe7, 0xed, 0xec, 0xf0,
  0xf5, 0xea, 0xe5, 0xe6, 0xec, 0xdf, 0xed, 0xb6, 0xee, 0xd6, 0xf0, 0xec,
  0xe7, 0xcc, 0xeb, 0xf1, 0xed, 0xed, 0xe8, 0xeb, 0xdc, 0xf3, 0xf6, 0xed,
  0xe6, 0xf2, 0xe5, 0xed, 0xf0, 0xf0, 0xd1, 0xf0, 0xea, 0x81, 0xe9, 0xeb,
  0xe0, 0xee, 0xf2, 0xec, 0xe5, 0xef, 0xe7, 0xe7, 0xe8, 0xf1, 0xea, 0xf1,
  0xf5, 0xe6, 0xe7, 0xe7, 0xed, 0xdd, 0xe9, 0xb1, 0xe6, 0xd2, 0xf1, 0xeb,
  0xec, 0xcf, 0xf2, 0xf1, 0xe7, 0xf1, 0xe3, 0xe8, 0xde, 0xf3, 0xf1, 0xea,
  0xe8, 0xf1, 0xe5, 0xec, 0xf2, 0xf0, 0xd5, 0xf0, 0xea, 0x81, 0xe7, 0xea,
  0xe3, 0xee, 0xf2, 0xe7, 0xeb, 0xef, 0xe8, 0xea, 0xe7, 0xef, 0xed, 0xed,
  0xee, 0xe6, 0xe3, 0xe4, 0xeb, 0xdc, 0xef, 0xb0, 0xec, 0xcd, 0xf0, 0xed,
  0xec, 0xc7, 0xf1, 0xf4, 0xe7, 0xed, 0xe9, 0xea, 0xd7, 0xf3, 0xec, 0xee,
  0xe5, 0xf3, 0xe8, 0xef, 0xf1, 0xef, 0xd5, 0xee, 0xed, 0x81, 0xe7, 0xe6,
  0xe4, 0xe9, 0xf3, 0xe9, 0xe5, 0xea, 0xe7, 0xe8, 0xe4, 0xf0, 0xec, 0xeb,
  0xf3, 0xe8, 0xe1, 0xe0, 0xea, 0xe1, 0xe8, 0xb4, 0xe6, 0xd2, 0xed, 0xed,
  0xe5, 0xce, 0xf0, 0xee, 0xe4, 0xea, 0xe9, 0xe8, 0xd9, 0xeb, 0xed, 0xf0,
  0xe9, 0xed, 0xe7, 0xec, 0xec, 0xee, 0xd7, 0xeb, 0xee, 0x81, 0xe7, 0xe9,
  0xde, 0xe9, 0xee, 0xe5, 0xe3, 0xf3, 0xe8, 0xe7, 0xe6, 0xf0, 0xea, 0xe9,
  0xf0, 0xe1, 0xe7, 0xe4, 0xe9, 0xe4, 0xeb, 0xb1, 0xe5, 0xce, 0xf3, 0xe8,
  0xe7, 0xc5, 0xe9, 0xf4, 0xec, 0xe9, 0xe5, 0xed, 0xd6, 0xef, 0xf3, 0xea,
  0xe7, 0xee, 0xe8, 0xef, 0xf1, 0xea, 0xd3, 0xec, 0xef, 0x81, 0xea, 0xe3,
  0xe4, 0xf0, 0xef, 0xeb, 0xeb, 0xf2, 0xea, 0xed, 0xe2, 0xed, 0xef, 0xed,
  0xf0, 0xe7, 0xe9, 0xe0, 0xe7, 0xdd, 0xee, 0xb0, 0xea, 0xd3, 0xf3, 0xec,
  0xe6, 0xc6, 0xed, 0xf0, 0xec, 0xf0, 0xe6, 0xed, 0xe0, 0xee, 0xf1, 0xef,
  0xe6, 0xf5, 0xeb, 0xf1, 0xed, 0xec, 0xd1, 0xec, 0xea, 0x81, 0xef, 0xe3,
  0xde, 0xee, 0xf0, 0xe6, 0xec, 0xed, 0xea, 0xea, 0xe4, 0xee, 0xef, 0xf1,
  0xf3, 0xe2, 0xe5, 0xe0, 0xec, 0xe4, 0xea, 0xb2, 0xea, 0xcc, 0xf4, 0xee,
  0xea, 0xc9, 0xec, 0xf4, 0xe9, 0xf2, 0xec, 0xee, 0xd7, 0xf0, 0xf4, 0xee,
  0xe4, 0xf2, 0xe9, 0xeb, 0xef, 0xed, 0xd5, 0xf1, 0xe7, 0x81, 0xe7, 0xe8,
  0xe2, 0xef, 0xf1, 0xe6, 0xeb, 0xf0, 0xed, 0xed, 0xe8, 0xef, 0xf0, 0xed,
  0xf0, 0xe4, 0xe2, 0xe3, 0xe6, 0xe4, 0xee, 0xb4, 0xeb, 0xd3, 0xf2, 0xeb,
  0xed, 0xcb, 0xef, 0xf5, 0xea, 0xed, 0xe6, 0xef, 0xdc, 0xf3, 0xef, 0xed,
  0xea, 0xf0, 0xeb, 0xe8, 0xf3, 0xec, 0xd7, 0xed, 0xe8, 0x81, 0xe7, 0xe3,
  0xe5, 0xe8, 0xef, 0xe7, 0xe9, 0xe9, 0xed, 0xe9, 0xe5, 0xf1, 0xf0, 0xf0,
  0xf3, 0xe0, 0xe6, 0xe3, 0xe5, 0xe1, 0xed, 0xb5, 0xe8, 0xcd, 0xec, 0xed,
  0xe7, 0xc5, 0xec, 0xf3, 0xea, 0xed, 0xe6, 0xf0, 0xd8, 0xf1, 0xef, 0xe9,
  0xe4, 0xf3, 0xe5, 0xed, 0xf3, 0xf2, 0xd0, 0xec, 0xef, 0x81, 0xeb, 0xe5,
  0xe0, 0xe9, 0xf3, 0xe8, 0xe6, 0xeb, 0xe8, 0xee, 0xe5, 0xf1, 0xec, 0xec,
  0xf4, 0xe9, 0xe7, 0xe7, 0xe8, 0xe4, 0xed, 0xaf, 0xed, 0xcf, 0xf0, 0xe9,
  0xe4, 0xca, 0xea, 0xf6, 0xec, 0xf0, 0xe5, 0xe9, 0xd8, 0xf1, 0xee, 0xee,
  0xe8, 0xf1, 0xe7, 0xe9, 0xec, 0xe9, 0xd5, 0xf2, 0xec, 0x81, 0xe9, 0xe2,
  0xe3, 0xeb, 0xf0, 0xe3, 0xea, 0xec, 0xe8, 0xee, 0xe9, 0xef, 0xef, 0xef,
  0xf5, 0xe6, 0xea, 0xe6, 0xeb, 0xe3, 0xf0, 0xb7, 0xe7, 0xd0, 0xf3, 0xea,
  0xe8, 0xc9, 0xec, 0xee, 0xed, 0xee, 0xe6, 0xef, 0xd5, 0xf3, 0xef, 0xee,
  0xe4, 0xf0, 0xe9, 0xef, 0xef, 0xf2, 0xd6, 0xef, 0xec, 0x81, 0xef, 0xe6,
  0xe2, 0xe9, 0xed, 0xec, 0xe7, 0xed, 0xe8, 0xe8, 0xe4, 0xec, 0xea, 0xf1,
  0xf0, 0xe2, 0xe2, 0xe3, 0xee, 0xdc, 0xe7, 0xb0, 0xe6, 0xcd, 0xf2, 0xe7,
  0xe6, 0xce, 0xef, 0xf0, 0xee, 0xee, 0xe6, 0xee, 0xdb, 0xed, 0xf5, 0xe9,
  0xec, 0xf3, 0xe8, 0xee, 0xf4, 0xf3, 0xd3, 0xf1, 0xf0, 0x81, 0xf0, 0xe5,
  0xe1, 0xe9, 0xee, 0xe9, 0xee, 0xee, 0xef, 0xe7, 0xe9, 0xf3, 0xee, 0xef,
  0xef, 0xe5, 0xe4, 0xe8, 0xeb, 0xe5, 0xe8, 0xb6, 0xea, 0xd2, 0xf4, 0xec,
  0xed, 0xcd, 0xf1, 0xef, 0xef, 0xf0, 0xe8, 0xeb, 0xd7, 0xf1, 0xf0, 0xee,
  0xe9, 0xf5, 0xe5, 0xeb, 0xf2, 0xf3, 0xd1, 0xef, 0xea, 0x81, 0xe8, 0xe5,
  0xe7, 0xed, 0xef, 0xe6, 0xe7, 0xf0, 0xed, 0xee, 0xea, 0xf3, 0xee, 0xeb,
  0xf1, 0xe5, 0xe6, 0xe3, 0xe7, 0xde, 0xeb, 0xb8, 0xe8, 0xcf, 0xf3, 0xec,
  0xe9, 0xc8, 0xeb, 0xf1, 0xe8, 0xeb, 0xe3, 0xe9, 0xdd, 0xef, 0xec, 0xeb,
  0xe4, 0xf1, 0xe9, 0xe8, 0xed, 0xf1, 0xd0, 0xf2, 0xee, 0x81, 0xea, 0xe7,
  0xde, 0xef, 0xf3, 0xe9, 0xe7, 0xe8, 0xe8, 0xeb, 0xe7, 0xf3, 0xec, 0xe9,
  0xf2, 0xe5, 0xe8, 0xe3, 0xe7, 0xde, 0xee, 0xb0, 0xe5, 0xcf, 0xed, 0xe9,
  0xea, 0xc7, 0xee, 0xef, 0xe8, 0xea, 0xe8, 0xec, 0xda, 0xee, 0xf1, 0xe6,
  0xe4, 0xf2, 0xea, 0xed, 0xed, 0xeb, 0xd0, 0xed, 0xe7, 0x81, 0xee, 0xe2,
  0xdd, 0xe7, 0xeb, 0xe9, 0xea, 0xee, 0xec, 0xee, 0xe6, 0xf2, 0xe9, 0xeb,
  0xed, 0xe1, 0xe8, 0xe5, 0xe9, 0xde, 0xe8, 0xb3, 0xea, 0xcf, 0xee, 0xed,
  0xe5, 0xcc, 0xf0, 0xed, 0xe8, 0xea, 0xe5, 0xeb, 0xdd, 0xf2, 0xed, 0xed,
  0xe6, 0xef, 0xec, 0xec, 0xf4, 0xed, 0xd2, 0xf2, 0xed, 0x81, 0xe9, 0xe7,
  0xdf, 0xea, 0xf3, 0xeb, 0xe6, 0xeb, 0xea, 0xe8, 0xe9, 0xf2, 0xef, 0xeb,
  0xf0, 0xe1, 0xeb, 0xe5, 0xe8, 0xe4, 0xeb, 0xb8, 0xee, 0xcc, 0xf3, 0xed,
  0xe8, 0xcf, 0xeb, 0xf3, 0xea, 0xeb, 0xe9, 0xec, 0xd8, 0xee, 0xf5, 0xe7,
  0xec, 0xf3, 0xe4, 0xe8, 0xf3, 0xec, 0xd6, 0xf1, 0xe9, 0x81, 0xeb, 0xe8,
  0xde, 0xf0, 0xf1, 0xe7, 0xe6, 0xef, 0xef, 0xe9, 0xe3, 0xef, 0xee, 0xee,
  0xf5, 0xe9, 0xe8, 0xdf, 0xee, 0xde, 0xeb, 0xb7, 0xe8, 0xce, 0xf4, 0xed,
  0xe7, 0xc6, 0xee, 0xf5, 0xec, 0xed, 0xe7, 0xec, 0xd9, 0xee, 0xf2, 0xed,
  0xe9, 0xf5, 0xe3, 0xf1, 0xf5, 0xf0, 0xd3, 0xf1, 0xea, 0x81, 0xef, 0xeb,
  0xe6, 0xe8, 0xec, 0xe7, 0xe5, 0xf2, 0xe9, 0xec, 0xe4, 0xf4, 0xee, 0xf0,
  0xf3, 0xe9, 0xe7, 0xe1, 0xe6, 0xe6, 0xef, 0xb3, 0xed, 0xd4, 0xed, 0xf1,
  0xe5, 0xcb, 0xf1, 0xf3, 0xe4, 0xee, 0xe3, 0xec, 0xdd, 0xee, 0xef, 0xea,
  0xe8, 0xf3, 0xe9, 0xef, 0xef, 0xec, 0xd4, 0xef, 0xee, 0x81, 0xe8, 0xe3,
  0xe4, 0xef, 0xed, 0xe5, 0xe9, 0xeb, 0xed, 0xec, 0xe0, 0xf0, 0xec, 0xf0,
  0xf2, 0xe3, 0xe8, 0xdf, 0xe6, 0xdf, 0xe7, 0xaf, 0xed, 0xcb, 0xeb, 0xeb,
  0xeb, 0xcc, 0xed, 0xf2, 0xeb, 0xed, 0xe5, 0xe9, 0xdc, 0xf2, 0xf0, 0xf1,
  0xec, 0xf4, 0xe8, 0xea, 0xf3, 0xef, 0xd8, 0xee, 0xe8, 0x81, 0xf0, 0xe6,
  0xe0, 0xe9, 0xec, 0xe7, 0xeb, 0xee, 0xed, 0xe9, 0xe3, 0xf4, 0xf0, 0xf2,
  0xf0, 0xe6, 0xe5, 0xe9, 0xe9, 0xe5, 0xef, 0xb4, 0xed, 0xd3, 0xec, 0xed,
  0xe6, 0xca, 0xf3, 0xf2, 0xe8, 0xec, 0xe9, 0xe9, 0xdd, 0xec, 0xf4, 0xf0,
  0xea, 0xf3, 0xe7, 0xec, 0xf4, 0xf0, 0xd6, 0xed, 0xea, 0x81, 0xeb, 0xe2,
  0xe1, 0xec, 0xf3, 0xe8, 0xec, 0xea, 0xe6, 0xed, 0xe4, 0xf5, 0xf0, 0xef,
  0xee, 0xe3, 0xe2, 0xdf, 0xe9, 0xe5, 0xed, 0xaf, 0xee, 0xcf, 0xf1, 0xec,
  0xe5, 0xca, 0xf1, 0xf2, 0xe8, 0xee, 0xe9, 0xec, 0xde, 0xee, 0xf1, 0xef,
  0xeb, 0xf1, 0xe8, 0xf0, 0xed, 0xf1, 0xd1, 0xf2, 0xf0, 0x81, 0xe7, 0xe8,
  0xe2, 0xea, 0xf1, 0xe8, 0xe6, 0xf1, 0xeb, 0xe9, 0xe6, 0xf5, 0xec, 0xed,
  0xf6, 0xe2, 0xe2, 0xe3, 0xe9, 0xdc, 0xe8, 0xb5, 0xed, 0xd2, 0xec, 0xec,
  0xec, 0xcf, 0xec, 0xf1, 0xe5, 0xee, 0xe7, 0xeb, 0xdd, 0xf2, 0xed, 0xed,
  0xe8, 0xf0, 0xe5, 0xee, 0xef, 0xec, 0xd1, 0xef, 0xea, 0x81, 0xeb, 0xe5,
  0xe3, 0xef, 0xf3, 0xe6, 0xe5, 0xed, 0xee, 0xe9, 0xe9, 0xf0, 0xf1, 0xeb,
  0xf2, 0xeb, 0xe8, 0xe1, 0xeb, 0xdd, 0xeb, 0xb9, 0xee, 0xd2, 0xee, 0xf1,
  0xed, 0xcd, 0xf0, 0xf4, 0xec, 0xeb, 0xe9, 0xea, 0xdd, 0xf4, 0xf3, 0xe8,
  0xea, 0xef, 0xe9, 0xee, 0xed, 0xf0, 0xd2, 0xf3, 0xed, 0x81, 0xe6, 0xe6,
  0xdd, 0xed, 0xf0, 0xe8, 0xe6, 0xec, 0xec, 0xe6, 0xe9, 0xf5, 0xef, 0xed,
  0xee, 0xe7, 0xe2, 0xe7, 0xe6, 0xe1, 0xea, 0xb2, 0xeb, 0xd3, 0xf0, 0xe9,
  0xe9, 0xd0, 0xf0, 0xee, 0xe5, 0xed, 0xe6, 0xec, 0xd9, 0xef, 0xef, 0xe8,
  0xe8, 0xf3, 0xe3, 0xec, 0xf1, 0xee, 0xd7, 0xed, 0xe8, 0x81, 0xee, 0xe2,
  0xe2, 0xef, 0xf4, 0xeb, 0xe6, 0xee, 0xe6, 0xee, 0xe3, 0xec, 0xeb, 0xec,
  0xf0, 0xe9, 0xe5, 0xe3, 0xeb, 0xe4, 0xec, 0xb1, 0xe9, 0xd3, 0xf1, 0xee,
  0xe8, 0xc8, 0xf2, 0xf1, 0xec, 0xed, 0xe9, 0xed, 0xdd, 0xef, 0xf0, 0xe9,
  0xec, 0xf5, 0xe2, 0xf1, 0xf5, 0xf1, 0xd1, 0xed, 0xec, 0x81, 0xee, 0xe2,
  0xdd, 0xeb, 0xf4, 0xe3, 0xea, 0xed, 0xe8, 0xea, 0xe7, 0xf2, 0xe9, 0xf1,
  0xf6, 0xe8, 0xe3, 0xe5, 0xe6, 0xe3, 0xeb, 0xb5, 0xec, 0xcd, 0xec, 0xe9,
  0xed, 0xc7, 0xef, 0xef, 0xe9, 0xf2, 0xe9, 0xe8, 0xdc, 0xed, 0xf3, 0xeb,
  0xe5, 0xf5, 0xe5, 0xea, 0xec, 0xec, 0xd9, 0xeb, 0xe8, 0x81, 0xeb, 0xe6,
  0xde, 0xe8, 0xec, 0xe8, 0xe4, 0xf2, 0xee, 0xec, 0xe6, 0xf6, 0xf1, 0xeb,
  0xf5, 0xe7, 0xe7, 0xe4, 0xe8, 0xe2, 0xeb, 0xb7, 0xeb, 0xd2, 0xf0, 0xe9,
  0xe5, 0xc9, 0xee, 0xf0, 0xee, 0xef, 0xe3, 0xe9, 0xdb, 0xf2, 0xef, 0xed,
  0xe5, 0xee, 0xeb, 0xed, 0xf2, 0xec, 0xd2, 0xef, 0xe9, 0x81, 0xe8, 0xe4,
  0xe3, 0xec, 0xf0, 0xeb, 0xe9, 0xf0, 0xea, 0xec, 0xe4, 0xf1, 0xed, 0xeb,
  0xed, 0xe5, 0xe4, 0xe2, 0xe6, 0xe1, 0xe8, 0xb0, 0xed, 0xd4, 0xf1, 0xea,
  0xe9, 0xc7, 0xee, 0xef, 0xea, 0xea, 0xe6, 0xee, 0xdc, 0xf1, 0xf1, 0xeb,
  0xea, 0xf4, 0xea, 0xe9, 0xf0, 0xee, 0xd3, 0xf2, 0xf0, 0x81, 0xea, 0xe8,
  0xe3, 0xea, 0xed, 0xe6, 0xe6, 0xec, 0xe9, 0xee, 0xe4, 0xf0, 0xe9, 0xee,
  0xef, 0xe4, 0xe6, 0xe5, 0xe8, 0xe4, 0xed, 0xb4, 0xea, 0xd4, 0xf1, 0xf0,
  0xe8, 0xce, 0xf2, 0xf4, 0xec, 0xf0, 0xe7, 0xeb, 0xd8, 0xee, 0xf5, 0xec,
  0xe6, 0xf2, 0xe9, 0xec, 0xf2, 0xf0, 0xd9, 0xec, 0xeb, 0x81, 0xef, 0xea,
  0xdf, 0xef, 0xf1, 0xe5, 0xe8, 0xee, 0xed, 0xea, 0xe1, 0xef, 0xef, 0xed,
  0xf3, 0xe7, 0xe4, 0xe2, 0xe6, 0xe2, 0xef, 0xb1, 0xeb, 0xcc, 0xf3, 0xe8,
  0xec, 0xc8, 0xeb, 0xf5, 0xec, 0xf1, 0xe7, 0xe9, 0xd7, 0xf2, 0xf4, 0xe9,
  0xe7, 0xf1, 0xe8, 0xe9, 0xed, 0xea, 0xd1, 0xec, 0xec, 0x81, 0xef, 0xe8,
  0xe2, 0xed, 0xf2, 0xe5, 0xe5, 0xf1, 0xef, 0xe8, 0xe1, 0xf1, 0xe8, 0xef,
  0xef, 0xe7, 0xe8, 0xe1, 0xea, 0xe1, 0xed, 0xb7, 0xe8, 0xce, 0xef, 0xee,
  0xeb, 0xc8, 0xea, 0xf6, 0xe6, 0xeb, 0xe7, 0xe9, 0xd6, 0xf2, 0xf0, 0xf0,
  0xeb, 0xf2, 0xe8, 0xef, 0xee, 0xec, 0xd6, 0xf3, 0xe7, 0x81, 0xe9, 0xe5,
  0xe3, 0xed, 0xf2, 0xe8, 0xe8, 0xea, 0xec, 0xee, 0xe6, 0xef, 0xed, 0xf0,
  0xf5, 0xe4, 0xe7, 0xe6, 0xe7, 0xe1, 0xee, 0xb1, 0xe7, 0xd2, 0xf2, 0xec,
  0xe6, 0xc8, 0xeb, 0xf5, 0xe9, 0xeb, 0xea, 0xef, 0xd7, 0xf3, 0xf0, 0xeb,
  0xe5, 0xed, 0xe9, 0xf0, 0xf5, 0xee, 0xd1, 0xeb, 0xf0, 0x81, 0xe7, 0xe4,
  0xe3, 0xea, 0xee, 0xea, 0xe7, 0xf2, 0xed, 0xe7, 0xe3, 0xf2, 0xef, 0xf1,
  0xf4, 0xe4, 0xeb, 0xe7, 0xe9, 0xe2, 0xf0, 0xb2, 0xe7, 0xd2, 0xf0, 0xec,
  0xe5, 0xcf, 0xed, 0xf4, 0xe6, 0xec, 0xe4, 0xf1, 0xde, 0xf5, 0xf3, 0xed,
  0xe5, 0xef, 0xe4, 0xf1, 0xed, 0xf3, 0xd2, 0xf2, 0xee, 0x81, 0xee, 0xe5,
  0xe1, 0xe9, 0xee, 0xe8, 0xea, 0xef, 0xeb, 0xeb, 0xe2, 0xed, 0xee, 0xf3,
  0xf4, 0xe5, 0xea, 0xe7, 0xea, 0xe6, 0xee, 0xb7, 0xef, 0xd0, 0xec, 0xe8,
  0xec, 0xd0, 0xed, 0xef, 0xe9, 0xf3, 0xe5, 0xee, 0xd8, 0xf2, 0xf3, 0xec,
  0xec, 0xed, 0xe9, 0xee, 0xed, 0xee, 0xd5, 0xee, 0xea, 0x81, 0xee, 0xe7,
  0xe1, 0xef, 0xf4, 0xe5, 0xe8, 0xec, 0xee, 0xec, 0xe9, 0xee, 0xf1, 0xeb,
  0xf6, 0xe8, 0xe6, 0xe3, 0xe8, 0xe7, 0xee, 0xb4, 0xeb, 0xd0, 0xf1, 0xec,
  0xeb, 0xcd, 0xec, 0xef, 0xe4, 0xec, 0xe8, 0xe9, 0xdd, 0xf0, 0xf3, 0xeb,
  0xe4, 0xf4, 0xeb, 0xe8, 0xec, 0xf0, 0xd6, 0xec, 0xee, 0x81, 0xe9, 0xe5,
  0xde, 0xf0, 0xf0, 0xeb, 0xe4, 0xf0, 0xe8, 0xe9, 0xe4, 0xed, 0xed, 0xec,
  0xf4, 0xe8, 0xe6, 0xe1, 0xeb, 0xe0, 0xe8, 0xaf, 0xe9, 0xcc, 0xf2, 0xef,
  0xe9, 0xce, 0xf1, 0xee, 0xe6, 0xf2, 0xeb, 0xef, 0xda, 0xed, 0xed, 0xeb,
  0xe5, 0xec, 0xea, 0xed, 0xf4, 0xec, 0xd1, 0xf1, 0xe8, 0x81, 0xeb, 0xe4,
  0xdf, 0xe9, 0xf2, 0xe9, 0xeb, 0xed, 0xec, 0xea, 0xe1, 0xec, 0xeb, 0xf0,
  0xee, 0xe2, 0xe2, 0xe3, 0xeb, 0xe4, 0xef, 0xb6, 0xeb, 0xd3, 0xeb, 0xec,
  0xe5, 0xc9, 0xed, 0xee, 0xe8, 0xee, 0xe9, 0xef, 0xd7, 0xee, 0xed, 0xec,
  0xe7, 0xf2, 0xe8, 0xee, 0xf1, 0xf1, 0xd3, 0xee, 0xe9, 0x81, 0xeb, 0xe6,
  0xe6, 0xea, 0xf0, 0xe7, 0xe6, 0xee, 0xec, 0xed, 0xe2, 0xf1, 0xf1, 0xea,
  0xf1, 0xe3, 0xe5, 0xe3, 0xe9, 0xdf, 0xec, 0xb1, 0xe9, 0xce, 0xf2, 0xea,
  0xeb, 0xc7, 0xeb, 0xf1, 0xe5, 0xef, 0xe8, 0xf0, 0xd4, 0xeb, 0xf5, 0xe9,
  0xe4, 0xec, 0xe9, 0xf0, 0xef, 0xec, 0xd2, 0xf1, 0xe9, 0x81, 0xe6, 0xe4,
  0xe0, 0xe9, 0xf4, 0xe3, 0xeb, 0xe9, 0xee, 0xeb, 0xe3, 0xf1, 0xe9, 0xec,
  0xf4, 0xe6, 0xe4, 0xe5, 0xe7, 0xdc, 0xef, 0xb1, 0xec, 0xd0, 0xef, 0xec,
  0xe4, 0xc9, 0xe9, 0xee, 0xeb, 0xec, 0xea, 0xec, 0xd7, 0xed, 0xf4, 0xed,
  0xe8, 0xf1, 0xe3, 0xef, 0xf2, 0xea, 0xd5, 0xf1, 0xe9, 0x81, 0xe8, 0xe9,
  0xde, 0xef, 0xf4, 0xea, 0xe5, 0xec, 0xe8, 0xed, 0xe7, 0xf0, 0xe7, 0xeb,
  0xf3, 0xe7, 0xe8, 0xe1, 0xe8, 0xe0, 0xeb, 0xad, 0xeb, 0xd0, 0xee, 0xe7,
  0xe6, 0xcd, 0xea, 0xf6, 0xed, 0xeb, 0xea, 0xee, 0xdc, 0xed, 0xf3, 0xec,
  0xe9, 0xf0, 0xeb, 0xed, 0xf3, 0xf2, 0xd2, 0xf4, 0xef, 0x81, 0xe9, 0xea,
  0xdf, 0xe9, 0xec, 0xe7, 0xe5, 0xec, 0xea, 0xea, 0xe6, 0xf2, 0xec, 0xf0,
  0xf2, 0xe4, 0xe5, 0xe2, 0xeb, 0xe0, 0xe9, 0xb8, 0xef, 0xd4, 0xf1, 0xe9,
  0xe6, 0xcb, 0xee, 0xef, 0xec, 0xef, 0xe8, 0xed, 0xd8, 0xee, 0xf1, 0xf1,
  0xe7, 0xef, 0xeb, 0xed, 0xf2, 0xf2, 0xda, 0xed, 0xee, 0x81, 0xee, 0xe6,
  0xe0, 0xee, 0xf2, 0xed, 0xe6, 0xef, 0xeb, 0xed, 0xe8, 0xed, 0xed, 0xed,
  0xf5, 0xe6, 0xe4, 0xe6, 0xee, 0xe0, 0xe9, 0xb2, 0xe7, 0xd2, 0xf0, 0xeb,
  0xe6, 0xce, 0xf1, 0xf1, 0xe6, 0xeb, 0xe4, 0xed, 0xd7, 0xea, 0xf4, 0xeb,
  0xeb, 0xf1, 0xea, 0xed, 0xf4, 0xed, 0xd8, 0xec, 0xeb, 0x81, 0xe8, 0xe9,
  0xe0, 0xed, 0xef, 0xe9, 0xe6, 0xf1, 0xec, 0xea, 0xe1, 0xf4, 0xea, 0xe9,
  0xef, 0xe5, 0xe2, 0xe3, 0xe8, 0xe2, 0xec, 0xb5, 0xee, 0xce, 0xed, 0xef,
  0xe8, 0xcc, 0xef, 0xf5, 0xea, 0xeb, 0xe4, 0xee, 0xde, 0xf2, 0xed, 0xef,
  0xe5, 0xef, 0xe6, 0xed, 0xf2, 0xec, 0xd8, 0xee, 0xea, 0x81, 0xf0, 0xeb,
  0xdd, 0xee, 0xf1, 0xeb, 0xe5, 0xef, 0xeb, 0xe6, 0xe6, 0xed, 0xf0, 0xec,
  0xf1, 0xe4, 0xe2, 0xe0, 0xec, 0xdf, 0xeb, 0xaf, 0xe9, 0xcb, 0xf2, 0xea,
  0xe8, 0xc8, 0xed, 0xf1, 0xe6, 0xed, 0xeb, 0xe9, 0xd8, 0xeb, 0xf2, 0xee,
  0xe8, 0xec, 0xeb, 0xea, 0xef, 0xef, 0xd8, 0xea, 0xea, 0x81, 0xe8, 0xe5,
  0xe3, 0xe8, 0xf0, 0xe9, 0xe3, 0xf2, 0xe9, 0xe9, 0xe8, 0xed, 0xf0, 0xeb,
  0xf5, 0xe6, 0xe8, 0xe4, 0xe4, 0xde, 0xef, 0xb1, 0xe9, 0xcd, 0xec, 0xea,
  0xe7, 0xc6, 0xec, 0xee, 0xec, 0xef, 0xe4, 0xed, 0xdd, 0xf1, 0xf0, 0xe6,
  0xe9, 0xf0, 0xe6, 0xe9, 0xef, 0xea, 0xd7, 0xf1, 0xea, 0x81, 0xe8, 0xe2,
  0xe4, 0xed, 0xec, 0xe8, 0xe4, 0xef, 0xeb, 0xe8, 0xe7, 0xf1, 0xe7, 0xe9,
  0xef, 0xe5, 0xe4, 0xe0, 0xed, 0xdf, 0xed, 0xb3, 0xed, 0xcd, 0xf3, 0xe9,
  0xe5, 0xc8, 0xf1, 0xf2, 0xe5, 0xef, 0xeb, 0xef, 0xdd, 0xec, 0xf1, 0xf0,
  0xe3, 0xef, 0xe5, 0xef, 0xf3, 0xed, 0xd3, 0xee, 0xe7, 0x81, 0xec, 0xe8,
  0xe0, 0xea, 0xee, 0xe4, 0xe8, 0xf1, 0xef, 0xea, 0xe7, 0xf4, 0xed, 0xf1,
  0xf4, 0xe8, 0xea, 0xe2, 0xe7, 0xe5, 0xe8, 0xb0, 0xeb, 0xcc, 0xf3, 0xef,
  0xeb, 0xca, 0xee, 0xf1, 0xe6, 0xe9, 0xe8, 0xeb, 0xda, 0xf0, 0xf3, 0xec,
  0xe8, 0xf0, 0xe2, 0xec, 0xef, 0xed, 0xd0, 0xeb, 0xe6, 0x81, 0xed, 0xe6,
  0xde, 0xea, 0xec, 0xeb, 0xe9, 0xf1, 0xe5, 0xe5, 0xe7, 0xf2, 0xe9, 0xef,
  0xf4, 0xe2, 0xe8, 0xdf, 0xec, 0xdd, 0xe6, 0xac, 0xe5, 0xd1, 0xef, 0xec,
  0xeb, 0xcd, 0xee, 0xee, 0xed, 0xee, 0xea, 0xed, 0xda, 0xef, 0xed, 0xea,
  0xea, 0xee, 0xec, 0xee, 0xf4, 0xee, 0xd8, 0xf3, 0xed, 0x81, 0xf0, 0xea,
  0xde, 0xef, 0xf0, 0xe9, 0xea, 0xf1, 0xef, 0xe8, 0xe3, 0xee, 0xeb, 0xf0,
  0xef, 0xe2, 0xe4, 0xe5, 0xec, 0xde, 0xec, 0xb9, 0xe6, 0xcd, 0xee, 0xf0,
  0xe5, 0xcc, 0xf0, 0xf5, 0xec, 0xea, 0xe6, 0xec, 0xd9, 0xed, 0xf0, 0xf0,
  0xeb, 0xee, 0xe6, 0xec, 0xf0, 0xf1, 0xd3, 0xf2, 0xe9, 0x81, 0xe8, 0xe6,
  0xdf, 0xeb, 0xf3, 0xe8, 0xe7, 0xf1, 0xea, 0xe8, 0xe9, 0xf0, 0xea, 0xf3,
  0xf5, 0xea, 0xe6, 0xe9, 0xeb, 0xe6, 0xef, 0xb3, 0xe8, 0xd2, 0xf0, 0xee,
  0xe9, 0xcf, 0xef, 0xee, 0xec, 0xf0, 0xec, 0xee, 0xdf, 0xed, 0xf2, 0xeb,
  0xe9, 0xf3, 0xeb, 0xef, 0xf0, 0xef, 0xd1, 0xf1, 0xf0, 0x81, 0xe9, 0xe2,
  0xe1, 0xec, 0xf1, 0xe6, 0xea, 0xed, 0xed, 0xe7, 0xe3, 0xf1, 0xeb, 0xec,
  0xee, 0xe7, 0xe7, 0xe0, 0xed, 0xe0, 0xec, 0xb6, 0xec, 0xce, 0xee, 0xec,
  0xeb, 0xc8, 0xf1, 0xf3, 0xe8, 0xee, 0xe4, 0xf0, 0xdb, 0xec, 0xf3, 0xf0,
  0xe6, 0xf3, 0xe4, 0xeb, 0xf2, 0xf2, 0xd9, 0xf1, 0xee, 0x81, 0xe9, 0xe4,
  0xde, 0xf0, 0xf2, 0xec, 0xeb, 0xec, 0xed, 0xe6, 0xe8, 0xf1, 0xeb, 0xf0,
  0xf2, 0xea, 0xe8, 0xe6, 0xe8, 0xe2, 0xef, 0xb2, 0xeb, 0xd2, 0xed, 0xec,
  0xed, 0xcf, 0xe9, 0xf5, 0xec, 0xf0, 0xe4, 0xf0, 0xdc, 0xec, 0xef, 0xf0,
  0xe4, 0xec, 0xeb, 0xed, 0xf1, 0xeb, 0xd5, 0xec, 0xef, 0x81, 0xec, 0xe7,
  0xe3, 0xec, 0xec, 0xe8, 0xe4, 0xef, 0xef, 0xea, 0xe2, 0xf2, 0xf0, 0xeb,
  0xf0, 0xe5, 0xe7, 0xe1, 0xe6, 0xe3, 0xed, 0xaf, 0xea, 0xcd, 0xed, 0xeb,
  0xe6, 0xca, 0xee, 0xf5, 0xe6, 0xf1, 0xe6, 0xed, 0xd8, 0xf2, 0xf0, 0xea,
  0xe9, 0xf4, 0xe8, 0xf0, 0xf1, 0xeb, 0xd6, 0xef, 0xf0, 0x81, 0xee, 0xe4,
  0xdf, 0xea, 0xec, 0xea, 0xeb, 0xf0, 0xee, 0xe9, 0xe6, 0xed, 0xeb, 0xeb,
  0xef, 0xe5, 0xe9, 0xe1, 0xea, 0xe0, 0xeb, 0xb3, 0xec, 0xcd, 0xf0, 0xec,
  0xec, 0xcb, 0xf1, 0xf1, 0xe9, 0xf1, 0xe3, 0xe8, 0xd7, 0xec, 0xf3, 0xec,
  0xeb, 0xf2, 0xe9, 0xed, 0xf4, 0xef, 0xd7, 0xec, 0xeb, 0x81, 0xe8, 0xe2,
  0xe4, 0xea, 0xf3, 0xec, 0xe8, 0xec, 0xec, 0xe9, 0xe6, 0xf1, 0xeb, 0xee,
  0xf1, 0xe9, 0xe6, 0xe7, 0xee, 0xe0, 0xeb, 0xb6, 0xeb, 0xd4, 0xef, 0xf0,
  0xe5, 0xc9, 0xed, 0xf1, 0xe6, 0xee, 0xe9, 0xe9, 0xd4, 0xf3, 0xf5, 0xeb,
  0xe5, 0xf3, 0xe8, 0xe8, 0xf4, 0xf2, 0xd4, 0xec, 0xe7, 0x81, 0xec, 0xe5,
  0xe1, 0xe9, 0xf1, 0xec, 0xe5, 0xed, 0xe8, 0xeb, 0xe8, 0xf2, 0xea, 0xeb,
  0xed, 0xe1, 0xe9, 0xdf, 0xe6, 0xe2, 0xef, 0xad, 0xe8, 0xce, 0xf1, 0xe8,
  0xe6, 0xc6, 0xeb, 0xee, 0xe8, 0xea, 0xe7, 0xf1, 0xde, 0xee, 0xed, 0xea,
  0xe4, 0xf4, 0xe4, 0xe9, 0xf0, 0xeb, 0xd1, 0xf4, 0xea, 0x81, 0xef, 0xe9,
  0xe5, 0xed, 0xf2, 0xeb, 0xe5, 0xef, 0xeb, 0xec, 0xe9, 0xf1, 0xed, 0xea,
  0xf6, 0xe3, 0xe6, 0xe4, 0xe6, 0xe6, 0xec, 0xb3, 0xea, 0xcd, 0xf0, 0xe9,
  0xeb, 0xc7, 0xee, 0xf4, 0xe6, 0xf0, 0xe5, 0xef, 0xdd, 0xf2, 0xf0, 0xec,
  0xe5, 0xee, 0xeb, 0xec, 0xf5, 0xef, 0xd2, 0xf5, 0xf1, 0x81, 0xe8, 0xe6,
  0xe4, 0xea, 0xee, 0xe6, 0xeb, 0xef, 0xeb, 0xe9, 0xe6, 0xee, 0xee, 0xee,
  0xf3, 0xe6, 0xea, 0xe5, 0xeb, 0xdf, 0xe9, 0xb8, 0xe7, 0xd1, 0xf2, 0xef,
  0xe7, 0xca, 0xee, 0xf6, 0xec, 0xf0, 0xed, 0xed, 0xdf, 0xf9, 0xf7, 0xf4,
  0xec, 0xf4, 0xe8, 0xf2, 0xf0, 0xf2, 0xd6, 0xf6, 0xee, 0x81, 0xf0, 0xf0,
  0xe3, 0xee, 0xf0, 0xea, 0xf0, 0xf0, 0xeb, 0xec, 0xf1, 0xf3, 0xf2, 0xf8,
  0xfa, 0xf2, 0xe1, 0xeb, 0xee, 0xed, 0xf6, 0xb1, 0xee, 0xd1, 0xf6, 0xeb,
  0xed, 0xce, 0xef, 0xf9, 0x9e, 0xfa, 0xff, 0xff, 0x04, 0x00, 0x00, 0x00,
  0xc0, 0x00, 0x00, 0x00, 0x6d, 0xbb, 0x1b, 0xbf, 0x05, 0xf7, 0x59, 0x3e,
  0x19, 0x04, 0x31, 0x3e, 0x9b, 0x09, 0x08, 0xbf, 0x3c, 0xa7, 0x13, 0xbf,
  0x4b, 0xf5, 0xd5, 0xbe, 0x0b, 0xa9, 0xe8, 0xbe, 0x2e, 0x9e, 0x35, 0xbe,
  0x88, 0xf9, 0x66, 0x3d, 0xcb, 0x42, 0xcd, 0xbe, 0x59, 0x82, 0x53, 0x3e,
  0xdf, 0x60, 0xbb, 0xbc, 0xd1, 0x42, 0x2e, 0x3e, 0x58, 0x62, 0xf7, 0xbc,
  0x99, 0x94, 0x09, 0xbe, 0x0f, 0xaf, 0x9f, 0xbe, 0x7c, 0x8e, 0x11, 0x3e,
  0xe5, 0xbf, 0xa4, 0x3d, 0x7f, 0x04, 0x26, 0xbe, 0x37, 0x29, 0x90, 0x3d,
  0xc5, 0x07, 0xb3, 0xbe, 0x43, 0xc7, 0x3c, 0xba, 0x9d, 0x71, 0xb8, 0xbd,
  0xc7, 0x77, 0x1d, 0x3e, 0x62, 0x27, 0x17, 0x3e, 0xf5, 0x33, 0x84, 0x3e,
  0xf8, 0x03, 0x6f, 0xbe, 0x11, 0x2f, 0xe5, 0x3c, 0xc4, 0x6f, 0x32, 0x3e,
  0x16, 0x48, 0x44, 0x3e, 0x5e, 0x7a, 0xb9, 0xbc, 0x91, 0xdb, 0x68, 0x3e,
  0x13, 0xd2, 0x07, 0xbe, 0x98, 0x35, 0xa0, 0xbe, 0x50, 0x3d, 0x8c, 0x3e,
  0x48, 0xc2, 0xd4, 0x3d, 0xc2, 0xc6, 0x0b, 0x3b, 0xcb, 0x3c, 0x40, 0xbe,
  0x41, 0xbd, 0xcb, 0x3c, 0x0a, 0x8e, 0x2b, 0x3d, 0x07, 0x19, 0x87, 0xbd,
  0x98, 0x50, 0x92, 0xbe, 0xb1, 0xd1, 0x9a, 0xbc, 0x4f, 0xe8, 0x16, 0x3e,
  0xf1, 0x0f, 0x9f, 0xbd, 0xa4, 0x18, 0xec, 0x3d, 0xeb, 0xb3, 0xff, 0xbe,
  0x83, 0x4c, 0xca, 0xbd, 0x6a, 0xfb, 0xff, 0xff, 0x04, 0x00, 0x00, 0x00,
  0xc0, 0x00, 0x00, 0x00, 0xef, 0xb1, 0x82, 0x3c, 0x4b, 0xb1, 0x0d, 0xbd,
  0x47, 0xa9, 0xc0, 0x3c, 0x07, 0xaf, 0x51, 0x3c, 0x4e, 0x78, 0x97, 0xbe,
  0xc7, 0x4a, 0x48, 0x3d, 0xa7, 0xde, 0x6a, 0xbb, 0x9c, 0x8a, 0x5d, 0xbc,
  0x4c, 0xbb, 0xcd, 0xbd, 0x42, 0xf8, 0x98, 0x3c, 0xff, 0xc6, 0xd1, 0xbc,
  0x37, 0xb0, 0x18, 0x3c, 0x61, 0x51, 0xbe, 0x3b, 0x08, 0x51, 0x81, 0x3d,
  0x30, 0xe2, 0xa3, 0xbe, 0xac, 0xf6, 0x33, 0xbd, 0x53, 0x74, 0xa1, 0xbc,
  0x8a, 0x28, 0x83, 0x3d, 0xfe, 0x1c, 0x10, 0xbd, 0xbc, 0x34, 0xb1, 0xbd,
  0xe0, 0x78, 0x86, 0xbe, 0x1c, 0x1e, 0x99, 0xbd, 0x91, 0x3d, 0xb5, 0x3c,
  0xfa, 0xb5, 0x89, 0x3c, 0x1d, 0x60, 0x83, 0xbd, 0x6e, 0x81, 0x27, 0xbd,
  0x69, 0xd7, 0xa7, 0xbd, 0x34, 0x69, 0xb5, 0xbc, 0x1a, 0x0b, 0x15, 0xbc,
  0x12, 0xbd, 0x18, 0x3d, 0xa7, 0xf9, 0x4a, 0xbc, 0x0a, 0xca, 0x48, 0xbc,
  0xa1, 0x8a, 0x17, 0x3c, 0xfc, 0x88, 0xd2, 0x3c, 0xb0, 0x26, 0x0e, 0xbe,
  0xda, 0xa1, 0x1f, 0xbc, 0x12, 0x60, 0x55, 0xbd, 0x2b, 0xd2, 0x21, 0xbe,
  0x95, 0x77, 0x8a, 0x3c, 0x4a, 0x66, 0x47, 0xbe, 0xb9, 0x18, 0x06, 0x3d,
  0x1a, 0xe8, 0xb8, 0xbe, 0xd8, 0x80, 0x8f, 0x3d, 0xbf, 0x11, 0xe7, 0x3c,
  0x9c, 0x8c, 0xdb, 0xbc, 0xb6, 0xcc, 0xa3, 0xbe, 0xfc, 0xe7, 0x33, 0x3c,
  0x5e, 0x47, 0x93, 0x3c, 0x36, 0xfc, 0xff, 0xff, 0x04, 0x00, 0x00, 0x00,
  0x94, 0x01, 0x00, 0x00, 0xe7, 0x18, 0x92, 0xbf, 0x00, 0xe1, 0xc0, 0xc0,
  0xba, 0xec, 0xbc, 0xc0, 0xee, 0xe8, 0xbf, 0xc0, 0x98, 0xaa, 0xc1, 0xc0,
  0xeb, 0x05, 0xbe, 0xc0, 0xd4, 0xfc, 0xbf, 0xc0, 0x20, 0x32, 0xc0, 0xc0,
  0x6e, 0x06, 0xc1, 0xc0, 0x8f, 0xac, 0xbf, 0xc0, 0x7c, 0x54, 0xbe, 0xc0,
  0x43, 0xf3, 0xbd, 0xc0, 0xe7, 0x0b, 0xc1, 0xc0, 0xc9, 0xb3, 0xbd, 0xc0,
  0xce, 0x9e, 0xbc, 0xc0, 0xd5, 0x05, 0xbf, 0xc0, 0x01, 0x6f, 0xc0, 0xc0,
  0xbb, 0x63, 0xbb, 0xc0, 0x43, 0xae, 0xc0, 0xc0, 0x0f, 0xf5, 0xb6, 0xc0,
  0xfa, 0xc8, 0xb6, 0xc0, 0x6b, 0x25, 0xa9, 0xc0, 0xff, 0x1d, 0x8b, 0xc0,
  0xf9, 0x5d, 0x4d, 0xc0, 0x8e, 0x94, 0x0e, 0xc0, 0xa4, 0x2e, 0x54, 0xbf,
  0xfe, 0x3b, 0xda, 0xbf, 0xbb, 0x8c, 0x07, 0xc0, 0x5b, 0xba, 0x25, 0xc0,
  0x54, 0x97, 0x51, 0xc0, 0x39, 0xf6, 0x70, 0xc0, 0x3a, 0x77, 0x85, 0xc0,
  0x48, 0xa6, 0xa7, 0xc0, 0xda, 0xb5, 0xaa, 0xc0, 0xed, 0x52, 0xb6, 0xc0,
  0x6d, 0x77, 0xbe, 0xc0, 0xe6, 0xf3, 0xba, 0xc0, 0xf8, 0xde, 0xc1, 0xc0,
  0x99, 0xa3, 0xbe, 0xc0, 0xac, 0x6e, 0xbf, 0xc0, 0x61, 0xa1, 0xc0, 0xc0,
  0x6a, 0x7c, 0xbc, 0xc0, 0x52, 0x61, 0xbf, 0xc0, 0x10, 0x3b, 0xc0, 0xc0,
  0x67, 0x88, 0xbe, 0xc0, 0x31, 0xd1, 0xbe, 0xc0, 0xad, 0xed, 0xc0, 0xc0,
  0x93, 0xd4, 0xbf, 0xc0, 0x58, 0x91, 0xbe, 0xc0, 0x74, 0x1a, 0xbf, 0xc0,
  0xcf, 0xdf, 0xc1, 0xc0, 0x99, 0xb9, 0xbd, 0xc0, 0xd3, 0x2e, 0xc0, 0xc0,
  0x00, 0x55, 0xbe, 0xc0, 0x1e, 0x3c, 0xbe, 0xc0, 0x43, 0x73, 0xc0, 0xc0,
  0xda, 0x56, 0xc0, 0xc0, 0xb8, 0xee, 0xbd, 0xc0, 0xd5, 0x76, 0xc0, 0xc0,
  0x9c, 0xef, 0xbe, 0xc0, 0xec, 0x72, 0xbf, 0xc0, 0x23, 0x69, 0xbd, 0xc0,
  0x18, 0xbd, 0xc0, 0xc0, 0xc6, 0x5f, 0xbd, 0xc0, 0x3d, 0x89, 0xbc, 0xc0,
  0x2c, 0x75, 0xbe, 0xc0, 0x40, 0x7f, 0xbf, 0xc0, 0xf4, 0x5d, 0xc0, 0xc0,
  0x36, 0x0a, 0xbc, 0xc0, 0x9e, 0x71, 0xbf, 0xc0, 0xca, 0xe9, 0xbc, 0xc0,
  0x8c, 0xca, 0xc0, 0xc0, 0x43, 0xfc, 0xbe, 0xc0, 0x67, 0xc2, 0xbf, 0xc0,
  0xee, 0x1b, 0xbf, 0xc0, 0xfa, 0x41, 0xbc, 0xc0, 0xce, 0x24, 0xbd, 0xc0,
  0xe6, 0x16, 0xbf, 0xc0, 0xf0, 0xcc, 0xbd, 0xc0, 0x56, 0xec, 0xc0, 0xc0,
  0x4e, 0x3a, 0xc1, 0xc0, 0xdc, 0xbe, 0xc0, 0xc0, 0xa2, 0x63, 0xbd, 0xc0,
  0x67, 0x51, 0xbd, 0xc0, 0x78, 0xc9, 0xbf, 0xc0, 0xc8, 0x19, 0xc0, 0xc0,
  0x81, 0x72, 0xbf, 0xc0, 0xf1, 0xf1, 0xbe, 0xc0, 0x1c, 0x69, 0xc0, 0xc0,
  0x4d, 0x6d, 0xc0, 0xc0, 0xdc, 0xc2, 0xbd, 0xc0, 0x33, 0x52, 0xbc, 0xc0,
  0x74, 0xa5, 0xbf, 0xc0, 0x28, 0xd1, 0xbd, 0xc0, 0x00, 0x74, 0xbf, 0xc0,
  0xb0, 0x51, 0xbf, 0xc0, 0x89, 0x22, 0xbe, 0xc0, 0x5f, 0x7d, 0xc1, 0xc0,
  0x16, 0xf5, 0xbe, 0xc0, 0x98, 0xa9, 0xbc, 0xc0, 0x75, 0xe2, 0xa9, 0xc0,
  0xd6, 0xfd, 0xff, 0xff, 0x04, 0x00, 0x00, 0x00, 0x80, 0x01, 0x00, 0x00,
  0x90, 0x91, 0x30, 0xbe, 0x96, 0x65, 0xa3, 0x3f, 0xd6, 0x3d, 0x67, 0xbf,
  0xf0, 0xed, 0xa9, 0x3e, 0x40, 0x45, 0xb9, 0xbf, 0xfa, 0xbc, 0x96, 0xbf,
  0x05, 0x3f, 0x37, 0x3f, 0xb8, 0xf4, 0x60, 0x3f, 0x8b, 0x54, 0x5c, 0x3e,
  0x7a, 0x2f, 0x7c, 0x3f, 0xf9, 0x0e, 0xdf, 0xbd, 0x13, 0x0b, 0x6b, 0x3f,
  0x88, 0x4e, 0xf4, 0x3e, 0x26, 0xeb, 0x2e, 0x3f, 0xc8, 0x4e, 0x09, 0xbd,
  0x72, 0xc7, 0xc0, 0x3e, 0x71, 0x7a, 0x6c, 0xbf, 0xd7, 0x04, 0xca, 0xbd,
  0x51, 0x18, 0x81, 0x3e, 0xe5, 0xbd, 0x25, 0x3f, 0xd9, 0xe2, 0x55, 0xbf,
  0xb8, 0x11, 0x0d, 0x3f, 0xcf, 0x7a, 0x39, 0xbf, 0xce, 0xda, 0x60, 0x3f,
  0x2e, 0x4a, 0xa0, 0xbe, 0x40, 0xa6, 0x94, 0xbf, 0x83, 0x3d, 0x60, 0xbf,
  0x55, 0xd6, 0x83, 0x3f, 0x5e, 0x36, 0x4c, 0xbf, 0x4f, 0xec, 0x5b, 0x3f,
  0x98, 0xea, 0x3c, 0x3f, 0xb6, 0x7c, 0xef, 0xbe, 0x48, 0x04, 0xf4, 0xbe,
  0x1c, 0xf6, 0x36, 0x3f, 0x16, 0x9d, 0x62, 0xbf, 0x99, 0x3a, 0x30, 0x3f,
  0x4d, 0xc2, 0x26, 0xbf, 0xeb, 0xd1, 0x71, 0x3f, 0xef, 0xf2, 0x5c, 0xbf,
  0xd3, 0x12, 0x29, 0xbe, 0x70, 0xf5, 0x8c, 0x3f, 0x95, 0xc8, 0x08, 0xbf,
  0x69, 0x32, 0x44, 0xbf, 0x4b, 0xa9, 0xae, 0x3e, 0x82, 0x8a, 0x4e, 0xbf,
  0x4f, 0x19, 0x98, 0x3f, 0x59, 0x2d, 0x56, 0xbf, 0xc0, 0xc1, 0x41, 0x3f,
  0xfe, 0xce, 0xaa, 0xbf, 0x70, 0x44, 0x06, 0xbf, 0x77, 0x86, 0xa7, 0xbf,
  0xc2, 0x40, 0x9f, 0xbe, 0x7c, 0x9c, 0xef, 0x3c, 0x4e, 0xe0, 0xb3, 0xbe,
  0xe0, 0x10, 0x64, 0xbf, 0x7a, 0x30, 0x1e, 0x3f, 0xd8, 0xf8, 0xdd, 0x3e,
  0xcc, 0x81, 0x9e, 0xbf, 0xda, 0x69, 0x81, 0xbf, 0x25, 0x6a, 0xf4, 0x3e,
  0x61, 0xfa, 0x1b, 0xbf, 0x43, 0xef, 0xed, 0x3e, 0x24, 0x31, 0x8f, 0xbf,
  0xdb, 0x33, 0x86, 0x3e, 0x63, 0x7d, 0xfb, 0xbe, 0x32, 0xb1, 0x78, 0x3f,
  0x07, 0x89, 0x14, 0xbf, 0xa2, 0xc8, 0x9a, 0x3f, 0x2d, 0x83, 0x68, 0xbf,
  0xe5, 0xed, 0xb3, 0x3e, 0x42, 0xae, 0x8d, 0x3e, 0x3b, 0x6b, 0x8f, 0xbf,
  0x4f, 0xbc, 0x05, 0xbf, 0x3b, 0x99, 0xc9, 0x3e, 0x1e, 0xa7, 0x65, 0x3f,
  0x47, 0x31, 0x2e, 0xbf, 0xe1, 0xb6, 0x5a, 0xbf, 0x66, 0x63, 0x51, 0x3f,
  0x2e, 0x5c, 0x70, 0x3d, 0xc0, 0x8b, 0x13, 0xbf, 0x0e, 0x3a, 0x4f, 0xbf,
  0xd7, 0x51, 0x53, 0xbc, 0x26, 0x30, 0x2c, 0xbf, 0x31, 0x4b, 0x9f, 0x3f,
  0xe6, 0x74, 0x83, 0xbf, 0x0f, 0x2c, 0x9e, 0xbe, 0xa3, 0xbe, 0x5f, 0xbf,
  0xe0, 0x32, 0x1a, 0x3f, 0x42, 0xb4, 0x4a, 0xbf, 0x0b, 0xeb, 0x18, 0xbf,
  0xc6, 0x8f, 0xf3, 0xbe, 0x01, 0x9b, 0x21, 0x3f, 0xb6, 0x92, 0xfc, 0xbe,
  0xdd, 0xb4, 0xbc, 0x3f, 0xbe, 0x76, 0x93, 0xbe, 0xf0, 0x63, 0x5e, 0x3f,
  0x1c, 0xf2, 0xff, 0xff, 0x20, 0xf2, 0xff, 0xff, 0x0f, 0x00, 0x00, 0x00,
  0x4d, 0x4c, 0x49, 0x52, 0x20, 0x43, 0x6f, 0x6e, 0x76, 0x65, 0x72, 0x74,
  0x65, 0x64, 0x2e, 0x00, 0x01, 0x00, 0x00, 0x00, 0x14, 0x00, 0x00, 0x00,
  0x00, 0x00, 0x0e, 0x00, 0x18, 0x00, 0x14, 0x00, 0x10, 0x00, 0x0c, 0x00,
  0x08, 0x00, 0x04, 0x00, 0x0e, 0x00, 0x00, 0x00, 0x14, 0x00, 0x00, 0x00,
  0x1c, 0x00, 0x00, 0x00, 0x7c, 0x01, 0x00, 0x00, 0x80, 0x01, 0x00, 0x00,
  0x84, 0x01, 0x00, 0x00, 0x04, 0x00, 0x00, 0x00, 0x6d, 0x61, 0x69, 0x6e,
  0x00, 0x00, 0x00, 0x00, 0x06, 0x00, 0x00, 0x00, 0x30, 0x01, 0x00, 0x00,
  0xfc, 0x00, 0x00, 0x00, 0xac, 0x00, 0x00, 0x00, 0x88, 0x00, 0x00, 0x00,
  0x50, 0x00, 0x00, 0x00, 0x14, 0x00, 0x00, 0x00, 0x00, 0x00, 0x0e, 0x00,
  0x1a, 0x00, 0x14, 0x00, 0x10, 0x00, 0x0c, 0x00, 0x0b, 0x00, 0x04, 0x00,
  0x0e, 0x00, 0x00, 0x00, 0x1c, 0x00, 0x00, 0x00, 0x00, 0x00, 0x00, 0x09,
  0x1c, 0x00, 0x00, 0x00, 0x20, 0x00, 0x00, 0x00, 0x02, 0x00, 0x00, 0x00,
  0x00, 0x00, 0x06, 0x00, 0x08, 0x00, 0x04, 0x00, 0x06, 0x00, 0x00, 0x00,
  0x00, 0x00, 0x80, 0x3f, 0x01, 0x00, 0x00, 0x00, 0x0c, 0x00, 0x00, 0x00,
  0x01, 0x00, 0x00, 0x00, 0x0b, 0x00, 0x00, 0x00, 0x3e, 0xff, 0xff, 0xff,
  0x10, 0x00, 0x00, 0x00, 0x00, 0x00, 0x00, 0x08, 0x10, 0x00, 0x00, 0x00,
  0x14, 0x00, 0x00, 0x00, 0xac, 0xff, 0xff, 0xff, 0x00, 0x00, 0x00, 0x01,
  0x01, 0x00, 0x00, 0x00, 0x0b, 0x00, 0x00, 0x00, 0x03, 0x00, 0x00, 0x00,
  0x0a, 0x00, 0x00, 0x00, 0x05, 0x00, 0x00, 0x00, 0x02, 0x00, 0x00, 0x00,
  0x9e, 0xff, 0xff, 0xff, 0x0c, 0x00, 0x00, 0x00, 0x10, 0x00, 0x00, 0x00,
  0x01, 0x00, 0x00, 0x00, 0x01, 0x00, 0x00, 0x00, 0x0a, 0x00, 0x00, 0x00,
  0x01, 0x00, 0x00, 0x00, 0x09, 0x00, 0x00, 0x00, 0x92, 0xff, 0xff, 0xff,
  0x1c, 0x00, 0x00, 0x00, 0x00, 0x00, 0x00, 0x08, 0x1c, 0x00, 0x00, 0x00,
  0x20, 0x00, 0x00, 0x00, 0x0c, 0x00, 0x08, 0x00, 0x00, 0x00, 0x00, 0x00,
  0x00, 0x00, 0x07, 0x00, 0x0c, 0x00, 0x00, 0x00, 0x00, 0x00, 0x00, 0x01,
  0x01, 0x00, 0x00, 0x00, 0x09, 0x00, 0x00, 0x00, 0x03, 0x00, 0x00, 0x00,
  0x08, 0x00, 0x00, 0x00, 0x06, 0x00, 0x00, 0x00, 0x03, 0x00, 0x00, 0x00,
  0x00, 0x00, 0x0a, 0x00, 0x10, 0x00, 0x0c, 0x00, 0x08, 0x00, 0x04, 0x00,
  0x0a, 0x00, 0x00, 0x00, 0x0c, 0x00, 0x00, 0x00, 0x10, 0x00, 0x00, 0x00,
  0x01, 0x00, 0x00, 0x00, 0x01, 0x00, 0x00, 0x00, 0x08, 0x00, 0x00, 0x00,
  0x01, 0x00, 0x00, 0x00, 0x07, 0x00, 0x00, 0x00, 0x00, 0x00, 0x0e, 0x00,
  0x14, 0x00, 0x00, 0x00, 0x10, 0x00, 0x0c, 0x00, 0x0b, 0x00, 0x04, 0x00,
  0x0e, 0x00, 0x00, 0x00, 0x10, 0x00, 0x00, 0x00, 0x00, 0x00, 0x00, 0x08,
  0x0c, 0x00, 0x00, 0x00, 0x10, 0x00, 0x00, 0x00, 0xbc, 0xf3, 0xff, 0xff,
  0x01, 0x00, 0x00, 0x00, 0x07, 0x00, 0x00, 0x00, 0x03, 0x00, 0x00, 0x00,
  0x00, 0x00, 0x00, 0x00, 0x01, 0x00, 0x00, 0x00, 0x04, 0x00, 0x00, 0x00,
  0x01, 0x00, 0x00, 0x00, 0x0c, 0x00, 0x00, 0x00, 0x01, 0x00, 0x00, 0x00,
  0x00, 0x00, 0x00, 0x00, 0x0d, 0x00, 0x00, 0x00, 0xec, 0x0b, 0x00, 0x00,
  0x94, 0x0b, 0x00, 0x00, 0x40, 0x0b, 0x00, 0x00, 0x04, 0x0b, 0x00, 0x00,
  0xc8, 0x0a, 0x00, 0x00, 0xa8, 0x05, 0x00, 0x00, 0xf8, 0x02, 0x00, 0x00,
  0x64, 0x02, 0x00, 0x00, 0xf8, 0x01, 0x00, 0x00, 0x60, 0x01, 0x00, 0x00,
  0xf4, 0x00, 0x00, 0x00, 0x60, 0x00, 0x00, 0x00, 0x04, 0x00, 0x00, 0x00,
  0x5e, 0xf4, 0xff, 0xff, 0x00, 0x00, 0x00, 0x01, 0x14, 0x00, 0x00, 0x00,
  0x1c, 0x00, 0x00, 0x00, 0x1c, 0x00, 0x00, 0x00, 0x0d, 0x00, 0x00, 0x00,
  0x34, 0x00, 0x00, 0x00, 0x02, 0x00, 0x00, 0x00, 0xff, 0xff, 0xff, 0xff,
  0x65, 0x00, 0x00, 0x00, 0x48, 0xf4, 0xff, 0xff, 0x1b, 0x00, 0x00, 0x00,
  0x53, 0x74, 0x61, 0x74, 0x65, 0x66, 0x75, 0x6c, 0x50, 0x61, 0x72, 0x74,
  0x69, 0x74, 0x69, 0x6f, 0x6e, 0x65, 0x64, 0x43, 0x61, 0x6c, 0x6c, 0x5f,
  0x31, 0x3a, 0x30, 0x00, 0x02, 0x00, 0x00, 0x00, 0x01, 0x00, 0x00, 0x00,
  0x65, 0x00, 0x00, 0x00, 0xb6, 0xf4, 0xff, 0xff, 0x00, 0x00, 0x00, 0x01,
  0x14, 0x00, 0x00, 0x00, 0x1c, 0x00, 0x00, 0x00, 0x1c, 0x00, 0x00, 0x00,
  0x0c, 0x00, 0x00, 0x00, 0x6c, 0x00, 0x00, 0x00, 0x02, 0x00, 0x00, 0x00,
  0xff, 0xff, 0xff, 0xff, 0x65, 0x00, 0x00, 0x00, 0xa0, 0xf4, 0xff, 0xff,
  0x52, 0x00, 0x00, 0x00, 0x46, 0x65, 0x65, 0x64, 0x66, 0x6f, 0x77, 0x61,
  0x72, 0x64, 0x5f, 0x4d, 0x6f, 0x64, 0x65, 0x6c, 0x5f, 0x31, 0x2f, 0x4f,
  0x75, 0x74, 0x70, 0x75, 0x74, 0x5f, 0x4c, 0x61, 0x79, 0x65, 0x72, 0x5f,
  0x31, 0x2f, 0x4d, 0x61, 0x74, 0x4d, 0x75, 0x6c, 0x3b, 0x46, 0x65, 0x65,
  0x64, 0x66, 0x6f, 0x77, 0x61, 0x72, 0x64, 0x5f, 0x4d, 0x6f, 0x64, 0x65,
  0x6c, 0x5f, 0x31, 0x2f, 0x4f, 0x75, 0x74, 0x70, 0x75, 0x74, 0x5f, 0x4c,
  0x61, 0x79, 0x65, 0x72, 0x5f, 0x31, 0x2f, 0x42, 0x69, 0x61, 0x73, 0x41,
  0x64, 0x64, 0x00, 0x00, 0x02, 0x00, 0x00, 0x00, 0x01, 0x00, 0x00, 0x00,
  0x65, 0x00, 0x00, 0x00, 0x46, 0xf5, 0xff, 0xff, 0x00, 0x00, 0x00, 0x01,
  0x14, 0x00, 0x00, 0x00, 0x1c, 0x00, 0x00, 0x00, 0x1c, 0x00, 0x00, 0x00,
  0x0b, 0x00, 0x00, 0x00, 0x44, 0x00, 0x00, 0x00, 0x02, 0x00, 0x00, 0x00,
  0xff, 0xff, 0xff, 0xff, 0x30, 0x00, 0x00, 0x00, 0x30, 0xf5, 0xff, 0xff,
  0x2b, 0x00, 0x00, 0x00, 0x46, 0x65, 0x65, 0x64, 0x66, 0x6f, 0x77, 0x61,
  0x72, 0x64, 0x5f, 0x4d, 0x6f, 0x64, 0x65, 0x6c, 0x5f, 0x31, 0x2f, 0x48,
  0x69, 0x64, 0x64, 0x65, 0x6e, 0x5f, 0x4c, 0x61, 0x79, 0x65, 0x72, 0x5f,
  0x32, 0x5f, 0x31, 0x2f, 0x53, 0x69, 0x67, 0x6d, 0x6f, 0x69, 0x64, 0x00,
  0x02, 0x00, 0x00, 0x00, 0x01, 0x00, 0x00, 0x00, 0x30, 0x00, 0x00, 0x00,
  0xae, 0xf5, 0xff, 0xff, 0x00, 0x00, 0x00, 0x01, 0x14, 0x00, 0x00, 0x00,
  0x1c, 0x00, 0x00, 0x00, 0x1c, 0x00, 0x00, 0x00, 0x0a, 0x00, 0x00, 0x00,
  0x70, 0x00, 0x00, 0x00, 0x02, 0x00, 0x00, 0x00, 0xff, 0xff, 0xff, 0xff,
  0x30, 0x00, 0x00, 0x00, 0x98, 0xf5, 0xff, 0xff, 0x56, 0x00, 0x00, 0x00,
  0x46, 0x65, 0x65, 0x64, 0x66, 0x6f, 0x77, 0x61, 0x72, 0x64, 0x5f, 0x4d,
  0x6f, 0x64, 0x65, 0x6c, 0x5f, 0x31, 0x2f, 0x48, 0x69, 0x64, 0x64, 0x65,
  0x6e, 0x5f, 0x4c, 0x61, 0x79, 0x65, 0x72, 0x5f, 0x32, 0x5f, 0x31, 0x2f,
  0x4d, 0x61, 0x74, 0x4d, 0x75, 0x6c, 0x3b, 0x46, 0x65, 0x65, 0x64, 0x66,
  0x6f, 0x77, 0x61, 0x72, 0x64, 0x5f, 0x4d, 0x6f, 0x64, 0x65, 0x6c, 0x5f,
  0x31, 0x2f, 0x48, 0x69, 0x64, 0x64, 0x65, 0x6e, 0x5f, 0x4c, 0x61, 0x79,
  0x65, 0x72, 0x5f, 0x32, 0x5f, 0x31, 0x2f, 0x42, 0x69, 0x61, 0x73, 0x41,
  0x64, 0x64, 0x00, 0x00, 0x02, 0x00, 0x00, 0x00, 0x01, 0x00, 0x00, 0x00,
  0x30, 0x00, 0x00, 0x00, 0x42, 0xf6, 0xff, 0xff, 0x00, 0x00, 0x00, 0x01,
  0x14, 0x00, 0x00, 0x00, 0x1c, 0x00, 0x00, 0x00, 0x1c, 0x00, 0x00, 0x00,
  0x09, 0x00, 0x00, 0x00, 0x44, 0x00, 0x00, 0x00, 0x02, 0x00, 0x00, 0x00,
  0xff, 0xff, 0xff, 0xff, 0x30, 0x00, 0x00, 0x00, 0x2c, 0xf6, 0xff, 0xff,
  0x29, 0x00, 0x00, 0x00, 0x46, 0x65, 0x65, 0x64, 0x66, 0x6f, 0x77, 0x61,
  0x72, 0x64, 0x5f, 0x4d, 0x6f, 0x64, 0x65, 0x6c, 0x5f, 0x31, 0x2f, 0x48,
  0x69, 0x64, 0x64, 0x65, 0x6e, 0x5f, 0x4c, 0x61, 0x79, 0x65, 0x72, 0x5f,
  0x31, 0x2f, 0x53, 0x69, 0x67, 0x6d, 0x6f, 0x69, 0x64, 0x00, 0x00, 0x00,
  0x02, 0x00, 0x00, 0x00, 0x01, 0x00, 0x00, 0x00, 0x30, 0x00, 0x00, 0x00,
  0xaa, 0xf6, 0xff, 0xff, 0x00, 0x00, 0x00, 0x01, 0x14, 0x00, 0x00, 0x00,
  0x1c, 0x00, 0x00, 0x00, 0x1c, 0x00, 0x00, 0x00, 0x08, 0x00, 0x00, 0x00,
  0x6c, 0x00, 0x00, 0x00, 0x02, 0x00, 0x00, 0x00, 0xff, 0xff, 0xff, 0xff,
  0x30, 0x00, 0x00, 0x00, 0x94, 0xf6, 0xff, 0xff, 0x52, 0x00, 0x00, 0x00,
  0x46, 0x65, 0x65, 0x64, 0x66, 0x6f, 0x77, 0x61, 0x72, 0x64, 0x5f, 0x4d,
  0x6f, 0x64, 0x65, 0x6c, 0x5f, 0x31, 0x2f, 0x48, 0x69, 0x64, 0x64, 0x65,
  0x6e, 0x5f, 0x4c, 0x61, 0x79, 0x65, 0x72, 0x5f, 0x31, 0x2f, 0x4d, 0x61,
  0x74, 0x4d, 0x75, 0x6c, 0x3b, 0x46, 0x65, 0x65, 0x64, 0x66, 0x6f, 0x77,
  0x61, 0x72, 0x64, 0x5f, 0x4d, 0x6f, 0x64, 0x65, 0x6c, 0x5f, 0x31, 0x2f,
  0x48, 0x69, 0x64, 0x64, 0x65, 0x6e, 0x5f, 0x4c, 0x61, 0x79, 0x65, 0x72,
  0x5f, 0x31, 0x2f, 0x42, 0x69, 0x61, 0x73, 0x41, 0x64, 0x64, 0x00, 0x00,
  0x02, 0x00, 0x00, 0x00, 0x01, 0x00, 0x00, 0x00, 0x30, 0x00, 0x00, 0x00,
  0x6a, 0xfd, 0xff, 0xff, 0x00, 0x00, 0x00, 0x01, 0x14, 0x00, 0x00, 0x00,
  0x64, 0x02, 0x00, 0x00, 0x07, 0x00, 0x00, 0x00, 0x00, 0x00, 0x00, 0x09,
  0x70, 0x02, 0x00, 0x00, 0x54, 0xfd, 0xff, 0xff, 0x08, 0x00, 0x00, 0x00,
  0x88, 0x01, 0x00, 0x00, 0x30, 0x00, 0x00, 0x00, 0x00, 0x00, 0x00, 0x00,
  0x00, 0x00, 0x00, 0x00, 0x00, 0x00, 0x00, 0x00, 0x00, 0x00, 0x00, 0x00,
  0x00, 0x00, 0x00, 0x00, 0x00, 0x00, 0x00, 0x00, 0x00, 0x00, 0x00, 0x00,
  0x00, 0x00, 0x00, 0x00, 0x00, 0x00, 0x00, 0x00, 0x00, 0x00, 0x00, 0x00,
  0x00, 0x00, 0x00, 0x00, 0x00, 0x00, 0x00, 0x00, 0x00, 0x00, 0x00, 0x00,
  0x00, 0x00, 0x00, 0x00, 0x00, 0x00, 0x00, 0x00, 0x00, 0x00, 0x00, 0x00,
  0x00, 0x00, 0x00, 0x00, 0x00, 0x00, 0x00, 0x00, 0x00, 0x00, 0x00, 0x00,
  0x00, 0x00, 0x00, 0x00, 0x00, 0x00, 0x00, 0x00, 0x00, 0x00, 0x00, 0x00,
  0x00, 0x00, 0x00, 0x00, 0x00, 0x00, 0x00, 0x00, 0x00, 0x00, 0x00, 0x00,
  0x00, 0x00, 0x00, 0x00, 0x00, 0x00, 0x00, 0x00, 0x00, 0x00, 0x00, 0x00,
  0x00, 0x00, 0x00, 0x00, 0x00, 0x00, 0x00, 0x00, 0x00, 0x00, 0x00, 0x00,
  0x00, 0x00, 0x00, 0x00, 0x00, 0x00, 0x00, 0x00, 0x00, 0x00, 0x00, 0x00,
  0x00, 0x00, 0x00, 0x00, 0x00, 0x00, 0x00, 0x00, 0x00, 0x00, 0x00, 0x00,
  0x00, 0x00, 0x00, 0x00, 0x00, 0x00, 0x00, 0x00, 0x00, 0x00, 0x00, 0x00,
  0x00, 0x00, 0x00, 0x00, 0x00, 0x00, 0x00, 0x00, 0x00, 0x00, 0x00, 0x00,
  0x00, 0x00, 0x00, 0x00, 0x00, 0x00, 0x00, 0x00, 0x00, 0x00, 0x00, 0x00,
  0x00, 0x00, 0x00, 0x00, 0x00, 0x00, 0x00, 0x00, 0x00, 0x00, 0x00, 0x00,
  0x00, 0x00, 0x00, 0x00, 0x00, 0x00, 0x00, 0x00, 0x00, 0x00, 0x00, 0x00,
  0x00, 0x00, 0x00, 0x00, 0x00, 0x00, 0x00, 0x00, 0x00, 0x00, 0x00, 0x00,
  0x00, 0x00, 0x00, 0x00, 0x00, 0x00, 0x00, 0x00, 0x00, 0x00, 0x00, 0x00,
  0x00, 0x00, 0x00, 0x00, 0x00, 0x00, 0x00, 0x00, 0x00, 0x00, 0x00, 0x00,
  0x00, 0x00, 0x00, 0x00, 0x00, 0x00, 0x00, 0x00, 0x00, 0x00, 0x00, 0x00,
  0x00, 0x00, 0x00, 0x00, 0x00, 0x00, 0x00, 0x00, 0x00, 0x00, 0x00, 0x00,
  0x00, 0x00, 0x00, 0x00, 0x00, 0x00, 0x00, 0x00, 0x00, 0x00, 0x00, 0x00,
  0x00, 0x00, 0x00, 0x00, 0x00, 0x00, 0x00, 0x00, 0x00, 0x00, 0x00, 0x00,
  0x00, 0x00, 0x00, 0x00, 0x00, 0x00, 0x00, 0x00, 0x00, 0x00, 0x00, 0x00,
  0x00, 0x00, 0x00, 0x00, 0x00, 0x00, 0x00, 0x00, 0x00, 0x00, 0x00, 0x00,
  0x00, 0x00, 0x00, 0x00, 0x00, 0x00, 0x00, 0x00, 0x00, 0x00, 0x00, 0x00,
  0x00, 0x00, 0x00, 0x00, 0x00, 0x00, 0x00, 0x00, 0x00, 0x00, 0x00, 0x00,
  0x00, 0x00, 0x00, 0x00, 0x00, 0x00, 0x00, 0x00, 0x00, 0x00, 0x00, 0x00,
  0x00, 0x00, 0x00, 0x00, 0x00, 0x00, 0x00, 0x00, 0x00, 0x00, 0x00, 0x00,
  0x00, 0x00, 0x00, 0x00, 0x00, 0x00, 0x00, 0x00, 0x00, 0x00, 0x00, 0x00,
  0x00, 0x00, 0x00, 0x00, 0x00, 0x00, 0x00, 0x00, 0x30, 0x00, 0x00, 0x00,
  0xb9, 0xe2, 0x56, 0x3b, 0x6a, 0x64, 0x82, 0x3b, 0xcb, 0xe9, 0x46, 0x3b,
  0x2e, 0x8f, 0x9f, 0x3b, 0xb8, 0x6a, 0x8f, 0x3b, 0x39, 0xa5, 0x6e, 0x3b,
  0x27, 0x3d, 0x88, 0x3b, 0x32, 0x98, 0x7f, 0x3b, 0x55, 0xbb, 0x9f, 0x3b,
  0x84, 0x83, 0x4f, 0x3b, 0x1a, 0x9f, 0x9c, 0x3b, 0x3a, 0x37, 0x9f, 0x3b,
  0x7b, 0x0d, 0x88, 0x3b, 0xa2, 0x19, 0x78, 0x3b, 0x76, 0x01, 0x84, 0x3b,
  0xcc, 0x2c, 0x6c, 0x3b, 0xf0, 0x97, 0x68, 0x3b, 0xba, 0xf3, 0x3d, 0x3b,
  0xca, 0xc3, 0x5a, 0x3b, 0xfd, 0xf1, 0xab, 0x3b, 0x97, 0x63, 0x96, 0x3b,
  0x15, 0x1d, 0xd4, 0x3b, 0x25, 0x30, 0x8d, 0x3b, 0x7a, 0xe3, 0xb1, 0x3b,
  0x56, 0xbb, 0x7f, 0x3b, 0x84, 0x1c, 0x73, 0x3b, 0x04, 0x7a, 0x94, 0x3b,
  0x35, 0xd6, 0x80, 0x3b, 0xe4, 0x35, 0x6a, 0x3b, 0x60, 0xce, 0x54, 0x3b,
  0x52, 0x87, 0x58, 0x3b, 0xdf, 0x3d, 0x53, 0x3b, 0x2a, 0xeb, 0x64, 0x3b,
  0xdf, 0xc2, 0x63, 0x3b, 0x13, 0xd8, 0xeb, 0x3b, 0xc7, 0xfe, 0x4f, 0x3b,
  0x0b, 0x3f, 0x7d, 0x3b, 0xc4, 0x88, 0xa3, 0x3b, 0x16, 0xa6, 0x6f, 0x3b,
  0x82, 0x12, 0x86, 0x3b, 0x86, 0x84, 0x54, 0x3b, 0x88, 0x73, 0x90, 0x3b,
  0x59, 0xbe, 0x4c, 0x3b, 0x98, 0xe2, 0xc2, 0x3b, 0x96, 0x1b, 0x68, 0x3b,
  0xdf, 0x3c, 0x9f, 0x3b, 0xce, 0x52, 0x66, 0x3b, 0x5c, 0x4f, 0x54, 0x3b,
  0x12, 0x00, 0x00, 0x00, 0x74, 0x66, 0x6c, 0x2e, 0x70, 0x73, 0x65, 0x75,
  0x64, 0x6f, 0x5f, 0x71, 0x63, 0x6f, 0x6e, 0x73, 0x74, 0x31, 0x00, 0x00,
  0x02, 0x00, 0x00, 0x00, 0x30, 0x00, 0x00, 0x00, 0x30, 0x00, 0x00, 0x00,
  0x00, 0x00, 0x16, 0x00, 0x1c, 0x00, 0x18, 0x00, 0x17, 0x00, 0x10, 0x00,
  0x0c, 0x00, 0x08, 0x00, 0x00, 0x00, 0x00, 0x00, 0x00, 0x00, 0x07, 0x00,
  0x16, 0x00, 0x00, 0x00, 0x00, 0x00, 0x00, 0x01, 0x20, 0x00, 0x00, 0x00,
  0xec, 0x04, 0x00, 0x00, 0x06, 0x00, 0x00, 0x00, 0x00, 0x00, 0x00, 0x09,
  0xf8, 0x04, 0x00, 0x00, 0x0c, 0x00, 0x0c, 0x00, 0x00, 0x00, 0x00, 0x00,
  0x08, 0x00, 0x04, 0x00, 0x0c, 0x00, 0x00, 0x00, 0x08, 0x00, 0x00, 0x00,
  0x30, 0x03, 0x00, 0x00, 0x65, 0x00, 0x00, 0x00, 0x00, 0x00, 0x00, 0x00,
  0x00, 0x00, 0x00, 0x00, 0x00, 0x00, 0x00, 0x00, 0x00, 0x00, 0x00, 0x00,
  0x00, 0x00, 0x00, 0x00, 0x00, 0x00, 0x00, 0x00, 0x00, 0x00, 0x00, 0x00,
  0x00, 0x00, 0x00, 0x00, 0x00, 0x00, 0x00, 0x00, 0x00, 0x00, 0x00, 0x00,
  0x00, 0x00, 0x00, 0x00, 0x00, 0x00, 0x00, 0x00, 0x00, 0x00, 0x00, 0x00,
  0x00, 0x00, 0x00, 0x00, 0x00, 0x00, 0x00, 0x00, 0x00, 0x00, 0x00, 0x00,
  0x00, 0x00, 0x00, 0x00, 0x00, 0x00, 0x00, 0x00, 0x00, 0x00, 0x00, 0x00,
  0x00, 0x00, 0x00, 0x00, 0x00, 0x00, 0x00, 0x00, 0x00, 0x00, 0x00, 0x00,
  0x00, 0x00, 0x00, 0x00, 0x00, 0x00, 0x00, 0x00, 0x00, 0x00, 0x00, 0x00,
  0x00, 0x00, 0x00, 0x00, 0x00, 0x00, 0x00, 0x00, 0x00, 0x00, 0x00, 0x00,
  0x00, 0x00, 0x00, 0x00, 0x00, 0x00, 0x00, 0x00, 0x00, 0x00, 0x00, 0x00,
  0x00, 0x00, 0x00, 0x00, 0x00, 0x00, 0x00, 0x00, 0x00, 0x00, 0x00, 0x00,
  0x00, 0x00, 0x00, 0x00, 0x00, 0x00, 0x00, 0x00, 0x00, 0x00, 0x00, 0x00,
  0x00, 0x00, 0x00, 0x00, 0x00, 0x00, 0x00, 0x00, 0x00, 0x00, 0x00, 0x00,
  0x00, 0x00, 0x00, 0x00, 0x00, 0x00, 0x00, 0x00, 0x00, 0x00, 0x00, 0x00,
  0x00, 0x00, 0x00, 0x00, 0x00, 0x00, 0x00, 0x00, 0x00, 0x00, 0x00, 0x00,
  0x00, 0x00, 0x00, 0x00, 0x00, 0x00, 0x00, 0x00, 0x00, 0x00, 0x00, 0x00,
  0x00, 0x00, 0x00, 0x00, 0x00, 0x00, 0x00, 0x00, 0x00, 0x00, 0x00, 0x00,
  0x00, 0x00, 0x00, 0x00, 0x00, 0x00, 0x00, 0x00, 0x00, 0x00, 0x00, 0x00,
  0x00, 0x00, 0x00, 0x00, 0x00, 0x00, 0x00, 0x00, 0x00, 0x00, 0x00, 0x00,
  0x00, 0x00, 0x00, 0x00, 0x00, 0x00, 0x00, 0x00, 0x00, 0x00, 0x00, 0x00,
  0x00, 0x00, 0x00, 0x00, 0x00, 0x00, 0x00, 0x00, 0x00, 0x00, 0x00, 0x00,
  0x00, 0x00, 0x00, 0x00, 0x00, 0x00, 0x00, 0x00, 0x00, 0x00, 0x00, 0x00,
  0x00, 0x00, 0x00, 0x00, 0x00, 0x00, 0x00, 0x00, 0x00, 0x00, 0x00, 0x00,
  0x00, 0x00, 0x00, 0x00, 0x00, 0x00, 0x00, 0x00, 0x00, 0x00, 0x00, 0x00,
  0x00, 0x00, 0x00, 0x00, 0x00, 0x00, 0x00, 0x00, 0x00, 0x00, 0x00, 0x00,
  0x00, 0x00, 0x00, 0x00, 0x00, 0x00, 0x00, 0x00, 0x00, 0x00, 0x00, 0x00,
  0x00, 0x00, 0x00, 0x00, 0x00, 0x00, 0x00, 0x00, 0x00, 0x00, 0x00, 0x00,
  0x00, 0x00, 0x00, 0x00, 0x00, 0x00, 0x00, 0x00, 0x00, 0x00, 0x00, 0x00,
  0x00, 0x00, 0x00, 0x00, 0x00, 0x00, 0x00, 0x00, 0x00, 0x00, 0x00, 0x00,
  0x00, 0x00, 0x00, 0x00, 0x00, 0x00, 0x00, 0x00, 0x00, 0x00, 0x00, 0x00,
  0x00, 0x00, 0x00, 0x00, 0x00, 0x00, 0x00, 0x00, 0x00, 0x00, 0x00, 0x00,
  0x00, 0x00, 0x00, 0x00, 0x00, 0x00, 0x00, 0x00, 0x00, 0x00, 0x00, 0x00,
  0x00, 0x00, 0x00, 0x00, 0x00, 0x00, 0x00, 0x00, 0x00, 0x00, 0x00, 0x00,
  0x00, 0x00, 0x00, 0x00, 0x00, 0x00, 0x00, 0x00, 0x00, 0x00, 0x00, 0x00,
  0x00, 0x00, 0x00, 0x00, 0x00, 0x00, 0x00, 0x00, 0x00, 0x00, 0x00, 0x00,
  0x00, 0x00, 0x00, 0x00, 0x00, 0x00, 0x00, 0x00, 0x00, 0x00, 0x00, 0x00,
  0x00, 0x00, 0x00, 0x00, 0x00, 0x00, 0x00, 0x00, 0x00, 0x00, 0x00, 0x00,
  0x00, 0x00, 0x00, 0x00, 0x00, 0x00, 0x00, 0x00, 0x00, 0x00, 0x00, 0x00,
  0x00, 0x00, 0x00, 0x00, 0x00, 0x00, 0x00, 0x00, 0x00, 0x00, 0x00, 0x00,
  0x00, 0x00, 0x00, 0x00, 0x00, 0x00, 0x00, 0x00, 0x00, 0x00, 0x00, 0x00,
  0x00, 0x00, 0x00, 0x00, 0x00, 0x00, 0x00, 0x00, 0x00, 0x00, 0x00, 0x00,
  0x00, 0x00, 0x00, 0x00, 0x00, 0x00, 0x00, 0x00, 0x00, 0x00, 0x00, 0x00,
  0x00, 0x00, 0x00, 0x00, 0x00, 0x00, 0x00, 0x00, 0x00, 0x00, 0x00, 0x00,
  0x00, 0x00, 0x00, 0x00, 0x00, 0x00, 0x00, 0x00, 0x00, 0x00, 0x00, 0x00,
  0x00, 0x00, 0x00, 0x00, 0x00, 0x00, 0x00, 0x00, 0x00, 0x00, 0x00, 0x00,
  0x00, 0x00, 0x00, 0x00, 0x00, 0x00, 0x00, 0x00, 0x00, 0x00, 0x00, 0x00,
  0x00, 0x00, 0x00, 0x00, 0x00, 0x00, 0x00, 0x00, 0x00, 0x00, 0x00, 0x00,
  0x00, 0x00, 0x00, 0x00, 0x00, 0x00, 0x00, 0x00, 0x00, 0x00, 0x00, 0x00,
  0x00, 0x00, 0x00, 0x00, 0x00, 0x00, 0x00, 0x00, 0x00, 0x00, 0x00, 0x00,
  0x00, 0x00, 0x00, 0x00, 0x00, 0x00, 0x00, 0x00, 0x00, 0x00, 0x00, 0x00,
  0x00, 0x00, 0x00, 0x00, 0x00, 0x00, 0x00, 0x00, 0x00, 0x00, 0x00, 0x00,
  0x00, 0x00, 0x00, 0x00, 0x00, 0x00, 0x00, 0x00, 0x00, 0x00, 0x00, 0x00,
  0x00, 0x00, 0x00, 0x00, 0x00, 0x00, 0x00, 0x00, 0x00, 0x00, 0x00, 0x00,
  0x00, 0x00, 0x00, 0x00, 0x00, 0x00, 0x00, 0x00, 0x00, 0x00, 0x00, 0x00,
  0x00, 0x00, 0x00, 0x00, 0x00, 0x00, 0x00, 0x00, 0x00, 0x00, 0x00, 0x00,
  0x00, 0x00, 0x00, 0x00, 0x00, 0x00, 0x00, 0x00, 0x00, 0x00, 0x00, 0x00,
  0x00, 0x00, 0x00, 0x00, 0x00, 0x00, 0x00, 0x00, 0x00, 0x00, 0x00, 0x00,
  0x00, 0x00, 0x00, 0x00, 0x00, 0x00, 0x00, 0x00, 0x00, 0x00, 0x00, 0x00,
  0x00, 0x00, 0x00, 0x00, 0x00, 0x00, 0x00, 0x00, 0x00, 0x00, 0x00, 0x00,
  0x00, 0x00, 0x00, 0x00, 0x00, 0x00, 0x00, 0x00, 0x00, 0x00, 0x00, 0x00,
  0x00, 0x00, 0x00, 0x00, 0x00, 0x00, 0x00, 0x00, 0x00, 0x00, 0x00, 0x00,
  0x00, 0x00, 0x00, 0x00, 0x00, 0x00, 0x00, 0x00, 0x00, 0x00, 0x00, 0x00,
  0x00, 0x00, 0x00, 0x00, 0x00, 0x00, 0x00, 0x00, 0x00, 0x00, 0x00, 0x00,
  0x00, 0x00, 0x00, 0x00, 0x00, 0x00, 0x00, 0x00, 0x00, 0x00, 0x00, 0x00,
  0x00, 0x00, 0x00, 0x00, 0x00, 0x00, 0x00, 0x00, 0x00, 0x00, 0x00, 0x00,
  0x00, 0x00, 0x00, 0x00, 0x00, 0x00, 0x00, 0x00, 0x00, 0x00, 0x00, 0x00,
  0x00, 0x00, 0x00, 0x00, 0x00, 0x00, 0x00, 0x00, 0x00, 0x00, 0x00, 0x00,
  0x65, 0x00, 0x00, 0x00, 0xeb, 0x83, 0xbb, 0x3c, 0x0c, 0x1a, 0x33, 0x3d,
  0x89, 0x4f, 0x2f, 0x3d, 0x22, 0x53, 0x34, 0x3d, 0x97, 0xa5, 0x35, 0x3d,
  0xca, 0xcf, 0x33, 0x3d, 0xb0, 0x09, 0x34, 0x3d, 0x2b, 0xff, 0x30, 0x3d,
  0x85, 0xb0, 0x37, 0x3d, 0x4d, 0xfb, 0x35, 0x3d, 0x2e, 0x81, 0x36, 0x3d,
  0xed, 0xae, 0x34, 0x3d, 0xc6, 0xf1, 0x2d, 0x3d, 0xb9, 0x7b, 0x36, 0x3d,
  0xc1, 0xe1, 0x33, 0x3d, 0x92, 0xdb, 0x30, 0x3d, 0xc9, 0x15, 0x31, 0x3d,
  0x58, 0x77, 0x30, 0x3d, 0x4d, 0xa2, 0x2e, 0x3d, 0xd8, 0x6f, 0x2c, 0x3d,
  0x01, 0x3f, 0x31, 0x3d, 0x83, 0x6a, 0x25, 0x3d, 0xbd, 0x56, 0x0a, 0x3d,
  0x69, 0xf2, 0xc9, 0x3c, 0x3c, 0x23, 0xbd, 0x3c, 0x6c, 0xa7, 0xe4, 0x3b,
  0xca, 0x21, 0x89, 0x3c, 0x08, 0xc7, 0x9a, 0x3c, 0xf3, 0xf4, 0xb2, 0x3c,
  0x78, 0x2c, 0xcd, 0x3c, 0x30, 0xb1, 0xe6, 0x3c, 0x59, 0x9f, 0x02, 0x3d,
  0x90, 0x8f, 0x1f, 0x3d, 0x70, 0xb1, 0x27, 0x3d, 0x82, 0x03, 0x29, 0x3d,
  0x79, 0xce, 0x32, 0x3d, 0xf1, 0x95, 0x2f, 0x3d, 0xee, 0x69, 0x2e, 0x3d,
  0xb2, 0xa4, 0x2e, 0x3d, 0x7a, 0xe1, 0x2c, 0x3d, 0x95, 0xcb, 0x2c, 0x3d,
  0xfb, 0x2c, 0x33, 0x3d, 0x9e, 0x85, 0x31, 0x3d, 0xbf, 0x04, 0x2e, 0x3d,
  0x31, 0x88, 0x2d, 0x3d, 0xd1, 0xc3, 0x2a, 0x3d, 0x35, 0xa2, 0x2e, 0x3d,
  0xbf, 0x2d, 0x30, 0x3d, 0xda, 0x65, 0x32, 0x3d, 0x4b, 0x80, 0x2d, 0x3d,
  0x69, 0xdf, 0x2e, 0x3d, 0x1e, 0x9b, 0x2f, 0x3d, 0x55, 0xae, 0x2d, 0x3d,
  0x14, 0x54, 0x35, 0x3d, 0x6e, 0xdc, 0x31, 0x3d, 0xd7, 0x1a, 0x2b, 0x3d,
  0xf0, 0xaf, 0x2b, 0x3d, 0xee, 0xb4, 0x31, 0x3d, 0x09, 0x1e, 0x30, 0x3d,
  0x5d, 0x1c, 0x33, 0x3d, 0x18, 0x45, 0x2c, 0x3d, 0xed, 0x8c, 0x33, 0x3d,
  0x3c, 0x77, 0x2f, 0x3d, 0x5d, 0xe9, 0x30, 0x3d, 0x21, 0xf7, 0x32, 0x3d,
  0xf7, 0x63, 0x30, 0x3d, 0x9f, 0x85, 0x2e, 0x3d, 0xc8, 0x1c, 0x30, 0x3d,
  0x2a, 0xa9, 0x30, 0x3d, 0x76, 0x7f, 0x2e, 0x3d, 0x8d, 0x42, 0x32, 0x3d,
  0xcd, 0xe3, 0x30, 0x3d, 0xa5, 0xf7, 0x2e, 0x3d, 0xbb, 0x36, 0x2f, 0x3d,
  0x3b, 0x8c, 0x31, 0x3d, 0x41, 0x2d, 0x33, 0x3d, 0xab, 0x78, 0x33, 0x3d,
  0x84, 0x38, 0x2e, 0x3d, 0x30, 0xa8, 0x2d, 0x3d, 0x7e, 0x5e, 0x2e, 0x3d,
  0x49, 0xf1, 0x2b, 0x3d, 0x1b, 0x59, 0x2d, 0x3d, 0xb0, 0x56, 0x32, 0x3d,
  0x44, 0x25, 0x33, 0x3d, 0x3f, 0xd2, 0x2e, 0x3d, 0x6e, 0x71, 0x2d, 0x3d,
  0x71, 0xa9, 0x2b, 0x3d, 0x09, 0x0b, 0x2d, 0x3d, 0x1f, 0x65, 0x30, 0x3d,
  0xa0, 0xd1, 0x2a, 0x3d, 0xf9, 0xd8, 0x32, 0x3d, 0xb4, 0x76, 0x32, 0x3d,
  0x1d, 0x0b, 0x32, 0x3d, 0x4d, 0xeb, 0x32, 0x3d, 0x21, 0x03, 0x2f, 0x3d,
  0x97, 0x06, 0x31, 0x3d, 0x2c, 0x8a, 0x31, 0x3d, 0xdb, 0x6f, 0x2b, 0x3d,
  0x25, 0xd0, 0x2f, 0x3d, 0xbf, 0xde, 0x32, 0x3d, 0x67, 0xc2, 0x24, 0x3d,
  0x11, 0x00, 0x00, 0x00, 0x74, 0x66, 0x6c, 0x2e, 0x70, 0x73, 0x65, 0x75,
  0x64, 0x6f, 0x5f, 0x71, 0x63, 0x6f, 0x6e, 0x73, 0x74, 0x00, 0x00, 0x00,
  0x02, 0x00, 0x00, 0x00, 0x65, 0x00, 0x00, 0x00, 0x30, 0x00, 0x00, 0x00,
  0x56, 0xff, 0xff, 0xff, 0x00, 0x00, 0x00, 0x01, 0x10, 0x00, 0x00, 0x00,
  0x10, 0x00, 0x00, 0x00, 0x05, 0x00, 0x00, 0x00, 0x1c, 0x00, 0x00, 0x00,
  0xdc, 0xfe, 0xff, 0xff, 0x0f, 0x00, 0x00, 0x00, 0x61, 0x72, 0x69, 0x74,
  0x68, 0x2e, 0x63, 0x6f, 0x6e, 0x73, 0x74, 0x61, 0x6e, 0x74, 0x33, 0x00,
  0x01, 0x00, 0x00, 0x00, 0x30, 0x00, 0x00, 0x00, 0x8e, 0xff, 0xff, 0xff,
  0x00, 0x00, 0x00, 0x01, 0x10, 0x00, 0x00, 0x00, 0x10, 0x00, 0x00, 0x00,
  0x04, 0x00, 0x00, 0x00, 0x1c, 0x00, 0x00, 0x00, 0x14, 0xff, 0xff, 0xff,
  0x0f, 0x00, 0x00, 0x00, 0x61, 0x72, 0x69, 0x74, 0x68, 0x2e, 0x63, 0x6f,
  0x6e, 0x73, 0x74, 0x61, 0x6e, 0x74, 0x32, 0x00, 0x01, 0x00, 0x00, 0x00,
  0x30, 0x00, 0x00, 0x00, 0xc6, 0xff, 0xff, 0xff, 0x00, 0x00, 0x00, 0x01,
  0x10, 0x00, 0x00, 0x00, 0x10, 0x00, 0x00, 0x00, 0x03, 0x00, 0x00, 0x00,
  0x1c, 0x00, 0x00, 0x00, 0x4c, 0xff, 0xff, 0xff, 0x0f, 0x00, 0x00, 0x00,
  0x61, 0x72, 0x69, 0x74, 0x68, 0x2e, 0x63, 0x6f, 0x6e, 0x73, 0x74, 0x61,
  0x6e, 0x74, 0x31, 0x00, 0x01, 0x00, 0x00, 0x00, 0x65, 0x00, 0x00, 0x00,
  0x00, 0x00, 0x16, 0x00, 0x18, 0x00, 0x14, 0x00, 0x00, 0x00, 0x10, 0x00,
  0x0c, 0x00, 0x08, 0x00, 0x00, 0x00, 0x00, 0x00, 0x00, 0x00, 0x07, 0x00,
  0x16, 0x00, 0x00, 0x00, 0x00, 0x00, 0x00, 0x01, 0x10, 0x00, 0x00, 0x00,
  0x10, 0x00, 0x00, 0x00, 0x02, 0x00, 0x00, 0x00, 0x1c, 0x00, 0x00, 0x00,
  0x9c, 0xff, 0xff, 0xff, 0x0e, 0x00, 0x00, 0x00, 0x61, 0x72, 0x69, 0x74,
  0x68, 0x2e, 0x63, 0x6f, 0x6e, 0x73, 0x74, 0x61, 0x6e, 0x74, 0x00, 0x00,
  0x02, 0x00, 0x00, 0x00, 0x30, 0x00, 0x00, 0x00, 0x02, 0x00, 0x00, 0x00,
  0x00, 0x00, 0x16, 0x00, 0x1c, 0x00, 0x18, 0x00, 0x00, 0x00, 0x14, 0x00,
  0x10, 0x00, 0x0c, 0x00, 0x00, 0x00, 0x00, 0x00, 0x08, 0x00, 0x07, 0x00,
  0x16, 0x00, 0x00, 0x00, 0x00, 0x00, 0x00, 0x01, 0x14, 0x00, 0x00, 0x00,
  0x20, 0x00, 0x00, 0x00, 0x20, 0x00, 0x00, 0x00, 0x01, 0x00, 0x00, 0x00,
  0x3c, 0x00, 0x00, 0x00, 0x02, 0x00, 0x00, 0x00, 0xff, 0xff, 0xff, 0xff,
  0x02, 0x00, 0x00, 0x00, 0x04, 0x00, 0x04, 0x00, 0x04, 0x00, 0x00, 0x00,
  0x1d, 0x00, 0x00, 0x00, 0x73, 0x65, 0x72, 0x76, 0x69, 0x6e, 0x67, 0x5f,
  0x64, 0x65, 0x66, 0x61, 0x75, 0x6c, 0x74, 0x5f, 0x49, 0x6e, 0x70, 0x75,
  0x74, 0x5f, 0x4c, 0x61, 0x79, 0x65, 0x72, 0x3a, 0x30, 0x00, 0x00, 0x00,
  0x02, 0x00, 0x00, 0x00, 0x01, 0x00, 0x00, 0x00, 0x02, 0x00, 0x00, 0x00,
  0x03, 0x00, 0x00, 0x00, 0x3c, 0x00, 0x00, 0x00, 0x20, 0x00, 0x00, 0x00,
  0x04, 0x00, 0x00, 0x00, 0xf4, 0xff, 0xff, 0xff, 0x19, 0x00, 0x00, 0x00,
  0x00, 0x00, 0x00, 0x19, 0x0c, 0x00, 0x0c, 0x00, 0x0b, 0x00, 0x00, 0x00,
  0x00, 0x00, 0x04, 0x00, 0x0c, 0x00, 0x00, 0x00, 0x0e, 0x00, 0x00, 0x00,
  0x00, 0x00, 0x00, 0x0e, 0x0c, 0x00, 0x10, 0x00, 0x0f, 0x00, 0x00, 0x00,
  0x08, 0x00, 0x04, 0x00, 0x0c, 0x00, 0x00, 0x00, 0x09, 0x00, 0x00, 0x00,
  0x0c, 0x00, 0x00, 0x00, 0x00, 0x00, 0x00, 0x09
};

#endif //MIJN_MODEL_H
